{
  "version": "1.0",
  "truncation": null,
  "padding": null,
  "added_tokens": [
    {
      "id": 0,
      "content": "<s>",
      "single_word": false,
      "lstrip": false,
      "rstrip": false,
      "normalized": false,
      "special": true
    },
    {
      "id": 1,
      "content": "<pad>",
      "single_word": false,
      "lstrip": false,
      "rstrip": false,
      "normalized": false,
      "special": true
    },
    {
      "id": 2,
      "content": "</s>",
      "single_word": false,
      "lstrip": false,
      "rstrip": false,
      "normalized": false,
      "special": true
    },
    {
      "id": 3,
      "content": "<unk>",
      "single_word": false,
      "lstrip": false,
      "rstrip": false,
      "normalized": false,
      "special": true
    },
    {
      "id": 4,
      "content": "<mask>",
      "single_word": false,
      "lstrip": false,
      "rstrip": false,
      "normalized": false,
      "special": true
    }
  ],
  "normalizer": null,
  "pre_tokenizer": {
    "type": "ByteLevel",
    "add_prefix_space": true,
    "trim_offsets": true,
    "use_regex": true
  },
  "post_processor": {
    "type": "ByteLevel",
    "add_prefix_space": true,
    "trim_offsets": false,
    "use_regex": true
  },
  "decoder": {
    "type": "ByteLevel",
    "add_prefix_space": true,
    "trim_offsets": true,
    "use_regex": true
  },
  "model": {
    "type": "BPE",
    "dropout": null,
    "unk_token": null,
    "continuing_subword_prefix": null,
    "end_of_word_suffix": null,
    "fuse_unk": false,
    "byte_fallback": false,
    "ignore_merges": false,
    "vocab": {
      "<s>": 0,
      "<pad>": 1,
      "</s>": 2,
      "<unk>": 3,
      "<mask>": 4,
      "!": 5,
      "\"": 6,
      "#": 7,
      "$": 8,
      "%": 9,
      "&": 10,
      "'": 11,
      "(": 12,
      ")": 13,
      "*": 14,
      "+": 15,
      ",": 16,
      "-": 17,
      ".": 18,
      "/": 19,
      "0": 20,
      "1": 21,
      "2": 22,
      "3": 23,
      "4": 24,
      "5": 25,
      "6": 26,
      "7": 27,
      "8": 28,
      "9": 29,
      ":": 30,
      ";": 31,
      "<": 32,
      "=": 33,
      ">": 34,
      "?": 35,
      "@": 36,
      "A": 37,
      "B": 38,
      "C": 39,
      "D": 40,
      "E": 41,
      "F": 42,
      "G": 43,
      "H": 44,
      "I": 45,
      "J": 46,
      "K": 47,
      "L": 48,
      "M": 49,
      "N": 50,
      "O": 51,
      "P": 52,
      "Q": 53,
      "R": 54,
      "S": 55,
      "T": 56,
      "U": 57,
      "V": 58,
      "W": 59,
      "X": 60,
      "Y": 61,
      "Z": 62,
      "[": 63,
      "\\": 64,
      "]": 65,
      "^": 66,
      "_": 67,
      "`": 68,
      "a": 69,
      "b": 70,
      "c": 71,
      "d": 72,
      "e": 73,
      "f": 74,
      "g": 75,
      "h": 76,
      "i": 77,
      "j": 78,
      "k": 79,
      "l": 80,
      "m": 81,
      "n": 82,
      "o": 83,
      "p": 84,
      "q": 85,
      "r": 86,
      "s": 87,
      "t": 88,
      "u": 89,
      "v": 90,
      "w": 91,
      "x": 92,
      "y": 93,
      "z": 94,
      "{": 95,
      "|": 96,
      "}": 97,
      "~": 98,
      "¡": 99,
      "¢": 100,
      "£": 101,
      "¤": 102,
      "¥": 103,
      "¦": 104,
      "§": 105,
      "¨": 106,
      "©": 107,
      "ª": 108,
      "«": 109,
      "¬": 110,
      "®": 111,
      "¯": 112,
      "°": 113,
      "±": 114,
      "²": 115,
      "³": 116,
      "´": 117,
      "µ": 118,
      "¶": 119,
      "·": 120,
      "¸": 121,
      "¹": 122,
      "º": 123,
      "»": 124,
      "¼": 125,
      "½": 126,
      "¾": 127,
      "¿": 128,
      "À": 129,
      "Á": 130,
      "Â": 131,
      "Ã": 132,
      "Ä": 133,
      "Å": 134,
      "Æ": 135,
      "Ç": 136,
      "È": 137,
      "É": 138,
      "Ê": 139,
      "Ë": 140,
      "Ì": 141,
      "Í": 142,
      "Î": 143,
      "Ï": 144,
      "Ð": 145,
      "Ñ": 146,
      "Ò": 147,
      "Ó": 148,
      "Ô": 149,
      "Õ": 150,
      "Ö": 151,
      "×": 152,
      "Ø": 153,
      "Ù": 154,
      "Ú": 155,
      "Û": 156,
      "Ü": 157,
      "Ý": 158,
      "Þ": 159,
      "ß": 160,
      "à": 161,
      "á": 162,
      "â": 163,
      "ã": 164,
      "ä": 165,
      "å": 166,
      "æ": 167,
      "ç": 168,
      "è": 169,
      "é": 170,
      "ê": 171,
      "ë": 172,
      "ì": 173,
      "í": 174,
      "î": 175,
      "ï": 176,
      "ð": 177,
      "ñ": 178,
      "ò": 179,
      "ó": 180,
      "ô": 181,
      "õ": 182,
      "ö": 183,
      "÷": 184,
      "ø": 185,
      "ù": 186,
      "ú": 187,
      "û": 188,
      "ü": 189,
      "ý": 190,
      "þ": 191,
      "ÿ": 192,
      "Ā": 193,
      "ā": 194,
      "Ă": 195,
      "ă": 196,
      "Ą": 197,
      "ą": 198,
      "Ć": 199,
      "ć": 200,
      "Ĉ": 201,
      "ĉ": 202,
      "Ċ": 203,
      "ċ": 204,
      "Č": 205,
      "č": 206,
      "Ď": 207,
      "ď": 208,
      "Đ": 209,
      "đ": 210,
      "Ē": 211,
      "ē": 212,
      "Ĕ": 213,
      "ĕ": 214,
      "Ė": 215,
      "ė": 216,
      "Ę": 217,
      "ę": 218,
      "Ě": 219,
      "ě": 220,
      "Ĝ": 221,
      "ĝ": 222,
      "Ğ": 223,
      "ğ": 224,
      "Ġ": 225,
      "ġ": 226,
      "Ģ": 227,
      "ģ": 228,
      "Ĥ": 229,
      "ĥ": 230,
      "Ħ": 231,
      "ħ": 232,
      "Ĩ": 233,
      "ĩ": 234,
      "Ī": 235,
      "ī": 236,
      "Ĭ": 237,
      "ĭ": 238,
      "Į": 239,
      "į": 240,
      "İ": 241,
      "ı": 242,
      "Ĳ": 243,
      "ĳ": 244,
      "Ĵ": 245,
      "ĵ": 246,
      "Ķ": 247,
      "ķ": 248,
      "ĸ": 249,
      "Ĺ": 250,
      "ĺ": 251,
      "Ļ": 252,
      "ļ": 253,
      "Ľ": 254,
      "ľ": 255,
      "Ŀ": 256,
      "ŀ": 257,
      "Ł": 258,
      "ł": 259,
      "Ń": 260,
      "ä¸": 261,
      "çļ": 262,
      "çļĦ": 263,
      "äº": 264,
      "åı": 265,
      "æľ": 266,
      "ä»": 267,
      "åħ": 268,
      "å¤": 269,
      "æĺ": 270,
      "å®": 271,
      "åĪ": 272,
      "è¿": 273,
      "ä½": 274,
      "çĶ": 275,
      "åľ": 276,
      "åĲ": 277,
      "ä¹": 278,
      "åŃ": 279,
      "æĺ¯": 280,
      "ç»": 281,
      "è¯": 282,
      "æĪ": 283,
      "ä¸Ģ": 284,
      "åĬ": 285,
      "åĽ": 286,
      "å°": 287,
      "æĸ": 288,
      "æĹ": 289,
      "æľī": 290,
      "ä¸į": 291,
      "ä¼": 292,
      "åľ¨": 293,
      "è®": 294,
      "å¹": 295,
      "èĢ": 296,
      "åį": 297,
      "æĿ": 298,
      "äºº": 299,
      "éĩ": 300,
      "æķ": 301,
      "åº": 302,
      "æī": 303,
      "å¸": 304,
      "å¯": 305,
      "å¾": 306,
      "ä¸Ń": 307,
      "åĨ": 308,
      "å¼": 309,
      "ĥ½": 310,
      "ä¸º": 311,
      "è¡": 312,
      "æĢ": 313,
      "åĩ": 314,
      "äºĨ": 315,
      "åŃ¦": 316,
      "å·": 317,
      "åĴ": 318,
      "è§": 319,
      "åĮ": 320,
      "éĢ": 321,
      "ç§": 322,
      "çĶŁ": 323,
      "åĴĮ": 324,
      "çĽ": 325,
      "ä»¥": 326,
      "çİ": 327,
      "å¤§": 328,
      "æł": 329,
      "¦ģ": 330,
      "è¦ģ": 331,
      "è¿Ļ": 332,
      "æ³": 333,
      "æŃ": 334,
      "æĬ": 335,
      "åĽ½": 336,
      "èĩ": 337,
      "æ°": 338,
      "å½": 339,
      "ä¸ª": 340,
      "è´": 341,
      "å¿": 342,
      "çī": 343,
      "æĹ¶": 344,
      "èĥ½": 345,
      "èµ": 346,
      "æĶ": 347,
      "å±": 348,
      "éĹ": 349,
      "åİ": 350,
      "éĿ": 351,
      "çĶ¨": 352,
      "ä¸Ĭ": 353,
      "éĻ": 354,
      "æŀ": 355,
      "åı¯": 356,
      "åıĳ": 357,
      "å¯¹": 358,
      "äºİ": 359,
      "å¹´": 360,
      "ä¼ļ": 361,
      "å¥": 362,
      "æĪĲ": 363,
      "æ²": 364,
      "çº": 365,
      "çĲ": 366,
      "çŃ": 367,
      "èĤ": 368,
      "ä¿": 369,
      "æ¯": 370,
      "æµ": 371,
      "åĪ°": 372,
      "æĿ¥": 373,
      "é¢": 374,
      "æİ": 375,
      "å¦": 376,
      "åĳ": 377,
      "æĪĳ": 378,
      "å°±": 379,
      "ä½ľ": 380,
      "åĩº": 381,
      "è¡Į": 382,
      "è¾": 383,
      "æĦ": 384,
      "æĥ": 385,
      "ä»¬": 386,
      "åľ°": 387,
      "å¤ļ": 388,
      "èĢĮ": 389,
      "çĲĨ": 390,
      "æĸ¹": 391,
      "åĪĨ": 392,
      "ä¹ĭ": 393,
      "æĢ§": 394,
      "èĩª": 395,
      "ä¹Ł": 396,
      "ä¸ļ": 397,
      "åŃĲ": 398,
      "ãĢ": 399,
      "æ³ķ": 400,
      "åĲİ": 401,
      "åŁ": 402,
      "çİ°": 403,
      "æĮ": 404,
      "å®¶": 405,
      "è¿ĩ": 406,
      "çľ": 407,
      "ä½ĵ": 408,
      "éĺ": 409,
      "åĵ": 410,
      "ç»ı": 411,
      "åī": 412,
      "å¦Ĥ": 413,
      "æ±": 414,
      "æĭ": 415,
      "åĬ¨": 416,
      "ä¸ĭ": 417,
      "ä¾": 418,
      "ä¸İ": 419,
      "ä»ĸ": 420,
      "é«": 421,
      "éģ": 422,
      "åħ¶": 423,
      "åĮĸ": 424,
      "ç«": 425,
      "é«ĺ": 426,
      "çĹ": 427,
      "å®ļ": 428,
      "æ´": 429,
      "æķĻ": 430,
      "èĢħ": 431,
      "å®ŀ": 432,
      "æīĢ": 433,
      "ç®": 434,
      "ç¨": 435,
      "çŃī": 436,
      "æĸĩ": 437,
      "åĬĽ": 438,
      "åĲĮ": 439,
      "è¿Ľ": 440,
      "è½": 441,
      "åģ": 442,
      "ç§į": 443,
      "éķ": 444,
      "çŁ": 445,
      "æĽ": 446,
      "æ¸": 447,
      "çĤ": 448,
      "éĿ¢": 449,
      "åĽł": 450,
      "æľ¬": 451,
      "ä¸»": 452,
      "éĩį": 453,
      "äº§": 454,
      "å·¥": 455,
      "æı": 456,
      "éĥ": 457,
      "æ¬": 458,
      "åĢ": 459,
      "è°": 460,
      "çī©": 461,
      "å¿ĥ": 462,
      "åºĶ": 463,
      "è¯´": 464,
      "å¾Ĺ": 465,
      "åĲĪ": 466,
      "éĥ½": 467,
      "åħ³": 468,
      "è¶": 469,
      "ç½": 470,
      "éķ¿": 471,
      "æį": 472,
      "ç¬": 473,
      "åº¦": 474,
      "å¢": 475,
      "é£": 476,
      "ç©": 477,
      "çĸ": 478,
      "çĦ": 479,
      "éļ": 480,
      "åĨħ": 481,
      "ç³": 482,
      "å½ĵ": 483,
      "éĹ´": 484,
      "èī": 485,
      "éĥ¨": 486,
      "å»": 487,
      "ä¸Ģä¸ª": 488,
      "æľĢ": 489,
      "å¼Ģ": 490,
      "å°ı": 491,
      "åīį": 492,
      "åĪ¶": 493,
      "éĩı": 494,
      "ç¤": 495,
      "å¥½": 496,
      "æĪĸ": 497,
      "åħ¨": 498,
      "é¡": 499,
      "ç¾": 500,
      "èĥ": 501,
      "è·": 502,
      "éĢļ": 503,
      "çĿ": 504,
      "äºĭ": 505,
      "ä»İ": 506,
      "æĻ": 507,
      "æ°´": 508,
      "çĽ¸": 509,
      "åĿ": 510,
      "æľº": 511,
      "æķ°": 512,
      "çĦ¶": 513,
      "æĸ°": 514,
      "æľŁ": 515,
      "æĦı": 516,
      "åħ¬": 517,
      "çķ": 518,
      "çł": 519,
      "èĬ": 520,
      "æĺİ": 521,
      "åĬł": 522,
      "äºĽ": 523,
      "å¤©": 524,
      "å¸¸": 525,
      "æĪĳä»¬": 526,
      "æ¶": 527,
      "æŀľ": 528,
      "Ĥ£": 529,
      "åıĬ": 530,
      "ä½Ĩ": 531,
      "ç±": 532,
      "è¿ĺ": 533,
      "æıĲ": 534,
      "ä»£": 535,
      "åı¯ä»¥": 536,
      "çĻ": 537,
      "ä½¿": 538,
      "éľ": 539,
      "æŁ": 540,
      "æŃ¤": 541,
      "æĥħ": 542,
      "ç¨ĭ": 543,
      "æĹł": 544,
      "ä¸ī": 545,
      "çĤ¹": 546,
      "ç´": 547,
      "é¢ĺ": 548,
      "èµĦ": 549,
      "å±ķ": 550,
      "å¾Ī": 551,
      "ç¡": 552,
      "å¤ĸ": 553,
      "å¹¶": 554,
      "ç³»": 555,
      "éĽ": 556,
      "ãĢĭ": 557,
      "ãĢĬ": 558,
      "ç¥": 559,
      "å»º": 560,
      "åħ¥": 561,
      "æģ": 562,
      "èµ·": 563,
      "éģĵ": 564,
      "è§£": 565,
      "ç®¡": 566,
      "çĹħ": 567,
      "æ°ĳ": 568,
      "å¸Ĥ": 569,
      "æ¯Ķ": 570,
      "æĽ´": 571,
      "å°Ĩ": 572,
      "èĦ": 573,
      "æĹ¥": 574,
      "åĵģ": 575,
      "èĭ": 576,
      "ä¿Ŀ": 577,
      "æŃ£": 578,
      "ä¹Ī": 579,
      "æ´»": 580,
      "åĪ©": 581,
      "æł·": 582,
      "ç¼": 583,
      "ä½į": 584,
      "èģ": 585,
      "è¡¨": 586,
      "ç¬¬": 587,
      "åŁº": 588,
      "ç²": 589,
      "å¼ı": 590,
      "å§": 591,
      "æľ¯": 592,
      "è¢": 593,
      "å¹³": 594,
      "çĿĢ": 595,
      "èį": 596,
      "éĹ®": 597,
      "ç»ĵ": 598,
      "è®¾": 599,
      "çĽ®": 600,
      "çĶ±": 601,
      "20": 602,
      "å¸Ī": 603,
      "çŁ¥": 604,
      "çī¹": 605,
      "çľĭ": 606,
      "éħ": 607,
      "åıĺ": 608,
      "å½¢": 609,
      "äºĮ": 610,
      "åİŁ": 611,
      "æ²¡": 612,
      "èĲ": 613,
      "ä¸ŃåĽ½": 614,
      "ç»Ł": 615,
      "éĩĳ": 616,
      "éĶ": 617,
      "çĥ": 618,
      "æĶ¿": 619,
      "ä¿¡": 620,
      "ç¾İ": 621,
      "éĩĮ": 622,
      "èĤ²": 623,
      "æį®": 624,
      "æĦŁ": 625,
      "è´¨": 626,
      "åŃ¦çĶŁ": 627,
      "éľĢ": 628,
      "æ·": 629,
      "ä¹ł": 630,
      "åŃ©": 631,
      "èĪ": 632,
      "è®¡": 633,
      "æľĪ": 634,
      "ä½ł": 635,
      "èº": 636,
      "çģ": 637,
      "åģļ": 638,
      "åĬ¡": 639,
      "è¢«": 640,
      "å·±": 641,
      "éª": 642,
      "æ²»": 643,
      "çĪ": 644,
      "ç±»": 645,
      "éĴ": 646,
      "åľº": 647,
      "æ¬¡": 648,
      "å£": 649,
      "è§Ħ": 650,
      "åıª": 651,
      "ç§ĳ": 652,
      "æ¡": 653,
      "çĶµ": 654,
      "åŃ©åŃĲ": 655,
      "åĲį": 656,
      "æĥ³": 657,
      "ç«ĭ": 658,
      "æ®": 659,
      "èĩªå·±": 660,
      "éĤ£": 661,
      "åİ»": 662,
      "åĮº": 663,
      "èº«": 664,
      "å¯¼": 665,
      "è®¤": 666,
      "ä¼ł": 667,
      "åıĳå±ķ": 668,
      "åĸ": 669,
      "çłĶ": 670,
      "æº": 671,
      "åŀ": 672,
      "å°±æĺ¯": 673,
      "ä¸ĸ": 674,
      "å¤Ħ": 675,
      "å°ĳ": 676,
      "åĲĳ": 677,
      "æµģ": 678,
      "ä¸¤": 679,
      "åıĹ": 680,
      "æ°Ķ": 681,
      "æ±Ĥ": 682,
      "åįģ": 683,
      "æİ¥": 684,
      "æłĩ": 685,
      "è¯Ĩ": 686,
      "åħ·": 687,
      "å¼º": 688,
      "åĲĦ": 689,
      "ä»·": 690,
      "èĻ": 691,
      "èĢĥ": 692,
      "æ²¡æľī": 693,
      "è®º": 694,
      "çĬ": 695,
      "å®ī": 696,
      "ç¤¾": 697,
      "æīĭ": 698,
      "æķĪ": 699,
      "è¥": 700,
      "éĵ": 701,
      "é¦": 702,
      "ä¹¦": 703,
      "æĬĢ": 704,
      "å®ĥ": 705,
      "éĢł": 706,
      "æĮĩ": 707,
      "è¥¿": 708,
      "å·²": 709,
      "ä»¶": 710,
      "éĹ®é¢ĺ": 711,
      "å¢ŀ": 712,
      "äº¤": 713,
      "è¿Ľè¡Į": 714,
      "èĩ³": 715,
      "æĢĿ": 716,
      "è®©": 717,
      "ç©¶": 718,
      "åķ": 719,
      "è±": 720,
      "è¾ĥ": 721,
      "åĪ«": 722,
      "èĢģ": 723,
      "è§Ĥ": 724,
      "æĿĥ": 725,
      "åĪĻ": 726,
      "åħĪ": 727,
      "ä»»": 728,
      "æĶ¶": 729,
      "åħĥ": 730,
      "é£İ": 731,
      "ä¹ī": 732,
      "ç´ł": 733,
      "æ¯ı": 734,
      "éĿŀ": 735,
      "æĮģ": 736,
      "è¿Ĳ": 737,
      "èĮ": 738,
      "è°ĥ": 739,
      "è¯¾": 740,
      "èħ": 741,
      "ç¦": 742,
      "Ġ1": 743,
      "è¯Ń": 744,
      "ç»Ħ": 745,
      "èī²": 746,
      "åĦ": 747,
      "ä¼ģ": 748,
      "ä¸ĵ": 749,
      "ç¡®": 750,
      "ç»Ļ": 751,
      "æĬĬ": 752,
      "åįķ": 753,
      "å®¹": 754,
      "æķĻèĤ²": 755,
      "æ¸ħ": 756,
      "æīį": 757,
      "åħ»": 758,
      "æĶ¹": 759,
      "æ»": 760,
      "æĺĵ": 761,
      "åĳĺ": 762,
      "è¾¾": 763,
      "æ³¨": 764,
      "é»": 765,
      "é©": 766,
      "èĬĤ": 767,
      "åŀĭ": 768,
      "åŃĺ": 769,
      "åıį": 770,
      "åı£": 771,
      "ç¥ŀ": 772,
      "è¯ģ": 773,
      "å½±": 774,
      "\",": 775,
      "åĽĽ": 776,
      "æŀĦ": 777,
      "å±±": 778,
      "ä¸ľ": 779,
      "è¡Ģ": 780,
      "ç½ĳ": 781,
      "æĶ¾": 782,
      "æºĲ": 783,
      "ä¼ģä¸ļ": 784,
      "åĪĽ": 785,
      "çłĶç©¶": 786,
      "æĪĺ": 787,
      "æł¼": 788,
      "çķĮ": 789,
      "é£Ł": 790,
      "åĦ¿": 791,
      "å¦Ĥæŀľ": 792,
      "åıĸ": 793,
      "ä½ķ": 794,
      "å²": 795,
      "è§ģ": 796,
      "ç²¾": 797,
      "00": 798,
      "éĹ¨": 799,
      "çĽ´": 800,
      "è¯¥": 801,
      "å¿ħ": 802,
      "ç¤¾ä¼ļ": 803,
      "åĻ": 804,
      "åĬŁ": 805,
      "çº¿": 806,
      "çİĩ": 807,
      "æµİ": 808,
      "çİ¯": 809,
      "éľĢè¦ģ": 810,
      "æ¨": 811,
      "å¼ķ": 812,
      "æł¡": 813,
      "åŃĹ": 814,
      "å®Į": 815,
      "ä»Ģ": 816,
      "åıĪ": 817,
      "åŃ¦ä¹ł": 818,
      "å¤į": 819,
      "éĻ¢": 820,
      "åİĨ": 821,
      "æĿ¡": 822,
      "è¿Ļä¸ª": 823,
      "åı¯èĥ½": 824,
      "åı²": 825,
      "çľŁ": 826,
      "åĨĽ": 827,
      "åı¸": 828,
      "ä½İ": 829,
      "è£": 830,
      "åĮ»": 831,
      "åį³": 832,
      "æľį": 833,
      "åĩĨ": 834,
      "åįĹ": 835,
      "åķĨ": 836,
      "ä»Ģä¹Ī": 837,
      "æķ´": 838,
      "æł¹": 839,
      "å·¥ä½ľ": 840,
      "éĢī": 841,
      "è®°": 842,
      "åĻ¨": 843,
      "è±¡": 844,
      "æµ·": 845,
      "çĸĹ": 846,
      "è½¬": 847,
      "æ£": 848,
      "çĬ¶": 849,
      "è·¯": 850,
      "ä»ĸä»¬": 851,
      "åŁİ": 852,
      "å¤´": 853,
      "èĩ´": 854,
      "æĢ»": 855,
      "æģ¯": 856,
      "éĢļè¿ĩ": 857,
      "å¢ĥ": 858,
      "ç»ıæµİ": 859,
      "å¸¦": 860,
      "éļ¾": 861,
      "åĨį": 862,
      "çĻ½": 863,
      "ä¸ĩ": 864,
      "æĹ¶éĹ´": 865,
      "åĮĹ": 866,
      "åĢ¼": 867,
      "Ġ(": 868,
      "åĶ": 869,
      "ç©º": 870,
      "ç®¡çĲĨ": 871,
      "å§ĭ": 872,
      "åĨ³": 873,
      "èģĶ": 874,
      "åħ±": 875,
      "é¥": 876,
      "çº§": 877,
      "è¨": 878,
      "è¨Ģ": 879,
      "è¯»": 880,
      "ä¸Ķ": 881,
      "åĵį": 882,
      "åĽŀ": 883,
      "æĸŃ": 884,
      "æŃ¥": 885,
      "åĽłä¸º": 886,
      "åħī": 887,
      "é¡¹": 888,
      "åĽ½å®¶": 889,
      "æĬĢæľ¯": 890,
      "å¤ĩ": 891,
      "ç§°": 892,
      "çĭ": 893,
      "è§Ĩ": 894,
      "è¶Ĭ": 895,
      "åĮħ": 896,
      "åĽ¾": 897,
      "æĢģ": 898,
      "èİ": 899,
      "ä¸Ģç§į": 900,
      "åĩł": 901,
      "æĸĻ": 902,
      "ç»Ĩ": 903,
      "ä¸»è¦ģ": 904,
      "ç¤º": 905,
      "æĬķ": 906,
      "æ¶Ī": 907,
      "çħ": 908,
      "åĨµ": 909,
      "æ¨¡": 910,
      "åı¤": 911,
      "äºĶ": 912,
      "éŁ": 913,
      "éĩįè¦ģ": 914,
      "èį¯": 915,
      "æ·±": 916,
      "éªĮ": 917,
      "æīĢä»¥": 918,
      "çİĭ": 919,
      "éĺ²": 920,
      "æ®µ": 921,
      "ä¾Ľ": 922,
      "ç»´": 923,
      "éĻħ": 924,
      "å¸Ĥåľº": 925,
      "æŀģ": 926,
      "éĽĨ": 927,
      "çª": 928,
      "åĳ½": 929,
      "çļĦäºº": 930,
      "è¿ĻäºĽ": 931,
      "å¤ª": 932,
      "å®Ŀ": 933,
      "çĶŁæ´»": 934,
      "ä»Ĭ": 935,
      "æĺ¾": 936,
      "èĲ¥": 937,
      "è½¦": 938,
      "å½±åĵį": 939,
      "åĨĻ": 940,
      "in": 941,
      "19": 942,
      "æĬ¥": 943,
      "æħ": 944,
      "é¢Ĩ": 945,
      "ä¾ĭ": 946,
      "è¿ĳ": 947,
      "è´¹": 948,
      "ä½¿çĶ¨": 949,
      "ä¸įæĺ¯": 950,
      "ä¸įåĲĮ": 951,
      "éĻ¤": 952,
      "..": 953,
      "æľª": 954,
      "æĤ": 955,
      "å¾Ģ": 956,
      "éĢĤ": 957,
      "æĸ½": 958,
      "èĬ±": 959,
      "ä¸ŃçļĦ": 960,
      "åĳ¨": 961,
      "æĸĩåĮĸ": 962,
      "å¤±": 963,
      "æĬ¤": 964,
      "äººçļĦ": 965,
      "è¿Ļæł·": 966,
      "å¥³": 967,
      "åĢĻ": 968,
      "è¯Ŀ": 969,
      "è¯ķ": 970,
      "æĸ¹éĿ¢": 971,
      "æİ¨": 972,
      "æĪ¿": 973,
      "æĸ¹æ³ķ": 974,
      "å¾·": 975,
      "æ¡Ī": 976,
      "æĶ¯": 977,
      "åĥ": 978,
      "æŁ¥": 979,
      "ä¾¿": 980,
      "èĥ½åĬĽ": 981,
      "èı": 982,
      "éĻ©": 983,
      "æĤ£": 984,
      "å¹¿": 985,
      "åĩºçİ°": 986,
      "å¾ĭ": 987,
      "èĳ": 988,
      "ä»ħ": 989,
      "ç®Ĺ": 990,
      "åıĤ": 991,
      "ç³»ç»Ł": 992,
      "åħ¬åı¸": 993,
      "ä¸ĢäºĽ": 994,
      "æ¢": 995,
      "æīĵ": 996,
      "çĹĩ": 997,
      "åĬ¿": 998,
      "èĤ¡": 999,
      "è¶³": 1000,
      "ç§¯": 1001,
      "è¿Ļç§į": 1002,
      "æĳ": 1003,
      "åľŁ": 1004,
      "éĢŁ": 1005,
      "çĥŃ": 1006,
      "åĨľ": 1007,
      "ä¸įèĥ½": 1008,
      "éļı": 1009,
      "çº¦": 1010,
      "æ¼": 1011,
      "åİĭ": 1012,
      "é¦ĸ": 1013,
      "Ġ2": 1014,
      "å¿«": 1015,
      "åł": 1016,
      "Ġt": 1017,
      "è¿ĩç¨ĭ": 1018,
      "er": 1019,
      "éĩĩ": 1020,
      "åĬ©": 1021,
      "æĥħåĨµ": 1022,
      "çĽĬ": 1023,
      "Ġa": 1024,
      "ä¼ĺ": 1025,
      "ä½Ĩæĺ¯": 1026,
      "å¯¹äºİ": 1027,
      "çŁ³": 1028,
      "ç¢": 1029,
      "èŀ": 1030,
      "å¤Ł": 1031,
      "çĶ»": 1032,
      "ä¸ĸçķĮ": 1033,
      "å±Ĥ": 1034,
      "è§ī": 1035,
      "æķĻåŃ¦": 1036,
      "å¸ĥ": 1037,
      "æİ§": 1038,
      "é¢Ħ": 1039,
      "å¼ł": 1040,
      "è®¸": 1041,
      "æķħ": 1042,
      "åįĩ": 1043,
      "çı": 1044,
      "ä¹Ĳ": 1045,
      "ç»Ń": 1046,
      "éĻį": 1047,
      "ç½®": 1048,
      "10": 1049,
      "è®®": 1050,
      "é©¬": 1051,
      ":\"": 1052,
      "å¿µ": 1053,
      "åı°": 1054,
      "ç¦»": 1055,
      "åĲĮæĹ¶": 1056,
      "æµĭ": 1057,
      "èīº": 1058,
      "æĹ¶åĢĻ": 1059,
      "æĪ·": 1060,
      "å¤§çļĦ": 1061,
      "å¡": 1062,
      "æ´»åĬ¨": 1063,
      "çĪ±": 1064,
      "èĮĥ": 1065,
      "åĩı": 1066,
      "å¹²": 1067,
      "çŃĸ": 1068,
      "ä¸¥": 1069,
      "åįİ": 1070,
      "éĥ¨åĪĨ": 1071,
      "æĪĲä¸º": 1072,
      "åĥı": 1073,
      "åıĳçĶŁ": 1074,
      "ä½ľçĶ¨": 1075,
      "å¾Īå¤ļ": 1076,
      "çļĦæĺ¯": 1077,
      "å±ŀ": 1078,
      "æĸ¹å¼ı": 1079,
      "äºī": 1080,
      "ä¿®": 1081,
      "çĮ": 1082,
      "ä¹Łæĺ¯": 1083,
      "èĩªå·±çļĦ": 1084,
      "éĺ³": 1085,
      "åĽłæŃ¤": 1086,
      "æİĴ": 1087,
      "æĹ©": 1088,
      "è¯Ħ": 1089,
      "èĪ¬": 1090,
      "å·²ç»ı": 1091,
      "çħ§": 1092,
      "ä¾Ŀ": 1093,
      "æ²»çĸĹ": 1094,
      "é¾": 1095,
      "ä¸Ģå®ļ": 1096,
      "è®²": 1097,
      "Ġs": 1098,
      "æ¿": 1099,
      "åº·": 1100,
      "æ¯į": 1101,
      "è®¤ä¸º": 1102,
      "å¼Ģå§ĭ": 1103,
      "åģ¥": 1104,
      "æ¹": 1105,
      "èµ°": 1106,
      "çİ¯å¢ĥ": 1107,
      "è¦ģæ±Ĥ": 1108,
      "è¿ľ": 1109,
      "èŀį": 1110,
      "æļ": 1111,
      "åħĭ": 1112,
      "éĻĲ": 1113,
      "æĴ": 1114,
      "ä½ľä¸º": 1115,
      "åİĨåı²": 1116,
      "çĻ¾": 1117,
      "è¶ħ": 1118,
      "æĹı": 1119,
      "ä¿¡æģ¯": 1120,
      "æľĿ": 1121,
      "åĳĬ": 1122,
      "æ£Ģ": 1123,
      "æĸ¯": 1124,
      "ä»¥åıĬ": 1125,
      "åºľ": 1126,
      "é»Ħ": 1127,
      "çĲĥ": 1128,
      "å®³": 1129,
      "å£«": 1130,
      "åħħ": 1131,
      "åĪĹ": 1132,
      "èĭ±": 1133,
      "æķ°æį®": 1134,
      "é¡»": 1135,
      "åĪĩ": 1136,
      "),": 1137,
      "æŃ»": 1138,
      "åı·": 1139,
      "æ¿Ģ": 1140,
      "è¯Ĺ": 1141,
      "æĮī": 1142,
      "éħį": 1143,
      "éŁ³": 1144,
      "çŁ¥è¯Ĩ": 1145,
      "åĪĿ": 1146,
      "æĪĸèĢħ": 1147,
      "åħį": 1148,
      "æŀĲ": 1149,
      "åŁŁ": 1150,
      "è¯·": 1151,
      "æ»¡": 1152,
      "åĿĩ": 1153,
      "æ¸¸": 1154,
      "Ġ3": 1155,
      "on": 1156,
      "éĥ½æĺ¯": 1157,
      "åıĳçİ°": 1158,
      "åĬŀ": 1159,
      "ç¾İåĽ½": 1160,
      "åħ·æľī": 1161,
      "æĿĲ": 1162,
      "èģĮ": 1163,
      "èİ·": 1164,
      "ä¸ĢèĪ¬": 1165,
      "åħ³ç³»": 1166,
      "è´£": 1167,
      "åħ¶ä»ĸ": 1168,
      "201": 1169,
      "åŁ¹": 1170,
      "ä¼Ĺ": 1171,
      "ç»ĩ": 1172,
      "è£ħ": 1173,
      "çº¢": 1174,
      "åĸĦ": 1175,
      "Ġc": 1176,
      "åĪĴ": 1177,
      "ä¸ĬçļĦ": 1178,
      "ç±³": 1179,
      "ç»Ī": 1180,
      "æĻº": 1181,
      "çīĩ": 1182,
      "åĲ¦": 1183,
      "å¥½çļĦ": 1184,
      "æľįåĬ¡": 1185,
      "çĶ±äºİ": 1186,
      "åĭ": 1187,
      "æŁĵ": 1188,
      "åĲ«": 1189,
      "æī¿": 1190,
      "åĲĥ": 1191,
      "ç§ĳåŃ¦": 1192,
      "æĭ©": 1193,
      "Ġ\"": 1194,
      "æĻ¯": 1195,
      "äºĴ": 1196,
      "ç¬¬ä¸Ģ": 1197,
      "å°Ķ": 1198,
      "æ¸©": 1199,
      "å¾ģ": 1200,
      "åĽ´": 1201,
      "æĭ¬": 1202,
      "å·®": 1203,
      "æľĽ": 1204,
      "æ¤": 1205,
      "å±Ģ": 1206,
      "è¾¹": 1207,
      "åį´": 1208,
      "æķĻå¸Ī": 1209,
      "ç¨İ": 1210,
      "å¨": 1211,
      "çĭ¬": 1212,
      "ä½ı": 1213,
      "å·ŀ": 1214,
      "æĬķèµĦ": 1215,
      "åĲ¸": 1216,
      "æĵ": 1217,
      "å®īåħ¨": 1218,
      "äº§åĵģ": 1219,
      "è´¢": 1220,
      "å¸Ŀ": 1221,
      "å¤§åŃ¦": 1222,
      "åħ´": 1223,
      "ç¡Ģ": 1224,
      "æıĲé«ĺ": 1225,
      "çİ°åľ¨": 1226,
      "æŃ¢": 1227,
      "åŁºç¡Ģ": 1228,
      "åŃĺåľ¨": 1229,
      "å°½": 1230,
      "æ¥": 1231,
      "è¿ŀ": 1232,
      "è®¾è®¡": 1233,
      "å½¢æĪĲ": 1234,
      "å¯Į": 1235,
      "ç®Ģ": 1236,
      "æ²³": 1237,
      "æ±Ł": 1238,
      "å®¢": 1239,
      "æł¹æį®": 1240,
      "çĨ": 1241,
      "äº§çĶŁ": 1242,
      "éĿŀå¸¸": 1243,
      "æ¯Ĵ": 1244,
      "åĨħå®¹": 1245,
      "éĿ©": 1246,
      "èī¯": 1247,
      "æł¸": 1248,
      "éĢīæĭ©": 1249,
      "æ±ī": 1250,
      "è¿Ļä¸Ģ": 1251,
      "å®ĺ": 1252,
      "éĿĴ": 1253,
      "å¼Ĥ": 1254,
      "éĤ": 1255,
      "Ġåľ¨": 1256,
      "åºĶè¯¥": 1257,
      "æĻ®": 1258,
      "çľ¼": 1259,
      "æĤ£èĢħ": 1260,
      "èĨ": 1261,
      "èĲ½": 1262,
      "è§Ĵ": 1263,
      "äº²": 1264,
      "èĥ½å¤Ł": 1265,
      "çĹĽ": 1266,
      "ç»Ħç»ĩ": 1267,
      "å£°": 1268,
      "çľģ": 1269,
      "åĲ¬": 1270,
      "è¯į": 1271,
      "çģ«": 1272,
      "åĪ°äºĨ": 1273,
      "è¡Įä¸º": 1274,
      "ç¼º": 1275,
      "åı¦": 1276,
      "åŁºæľ¬": 1277,
      "åĳ¢": 1278,
      "è¿ĺæĺ¯": 1279,
      "æĬĹ": 1280,
      "å¿ħé¡»": 1281,
      "ç¾¤": 1282,
      "å¯Ĩ": 1283,
      "çĶŁäº§": 1284,
      "æĶ¿åºľ": 1285,
      "åŃ¦æł¡": 1286,
      "å¦Ĥä½ķ": 1287,
      "æ¯Ķè¾ĥ": 1288,
      "æĪĳåĽ½": 1289,
      "åºķ": 1290,
      "åĪĨæŀĲ": 1291,
      "æıĲä¾Ľ": 1292,
      "èĩªçĦ¶": 1293,
      "åĮħæĭ¬": 1294,
      "è¡¥": 1295,
      "çķĻ": 1296,
      "éĺŁ": 1297,
      "æ¦": 1298,
      "å¾®": 1299,
      "åħŃ": 1300,
      "å±ħ": 1301,
      "éĤ£ä¹Ī": 1302,
      "ä¸ĵä¸ļ": 1303,
      "é¸": 1304,
      "èĦĳ": 1305,
      "å¿Ĺ": 1306,
      "è½»": 1307,
      "é¼": 1308,
      "re": 1309,
      "æ²¹": 1310,
      "è¿Ļæĺ¯": 1311,
      "ä¸´": 1312,
      "æľīçļĦ": 1313,
      "æĿ¥çļĦ": 1314,
      "å¯¼èĩ´": 1315,
      "è¿°": 1316,
      "çĶļ": 1317,
      "çĪ¶": 1318,
      "çķ¥": 1319,
      "ä¼¤": 1320,
      "æ¬¾": 1321,
      "åįĥ": 1322,
      "äººæ°ĳ": 1323,
      "è´Ł": 1324,
      "çł´": 1325,
      "æįŁ": 1326,
      "æŁĲ": 1327,
      "ç»ľ": 1328,
      "èĹ": 1329,
      "èĢģå¸Ī": 1330,
      "äº¬": 1331,
      "çļĦä¸Ģ": 1332,
      "çĽĳ": 1333,
      "æŀĹ": 1334,
      "200": 1335,
      "è§Ħå®ļ": 1336,
      "çªģ": 1337,
      "åĽ¢": 1338,
      "æ³¨æĦı": 1339,
      "åĽŃ": 1340,
      "åĬŁèĥ½": 1341,
      "çĸ¾": 1342,
      "çºª": 1343,
      "éĺ¶": 1344,
      "éĵ¶": 1345,
      "at": 1346,
      "èĻ½": 1347,
      "en": 1348,
      "çĤİ": 1349,
      "åłĤ": 1350,
      "åĬ³": 1351,
      "æĭī": 1352,
      "åºı": 1353,
      "ä¹ĭéĹ´": 1354,
      "ä½Ľ": 1355,
      "å¤§å®¶": 1356,
      "å²ģ": 1357,
      "æĿĳ": 1358,
      "çĽ¸åħ³": 1359,
      "éĶĢ": 1360,
      "æłĩåĩĨ": 1361,
      "å®«": 1362,
      "ç«ł": 1363,
      "ä¸ºäºĨ": 1364,
      "ç¿": 1365,
      "åĳ³": 1366,
      "åıĮ": 1367,
      "åģ¥åº·": 1368,
      "èĢĮä¸Ķ": 1369,
      "æĢİ": 1370,
      "ç¼ĸ": 1371,
      "é²": 1372,
      "åįł": 1373,
      "åįı": 1374,
      "æĲ": 1375,
      "ç»ĥ": 1376,
      "å¢ŀåĬł": 1377,
      "ä¹°": 1378,
      "çļĦæĹ¶åĢĻ": 1379,
      "äººä»¬": 1380,
      "å»ºè®¾": 1381,
      "çĽ®åīį": 1382,
      "å®ŀçİ°": 1383,
      "æİ§åĪ¶": 1384,
      "æ½": 1385,
      "å®¤": 1386,
      "ä»·åĢ¼": 1387,
      "åħ«": 1388,
      "çļ®": 1389,
      "åİŁåĽł": 1390,
      "å¦Ī": 1391,
      "çĵ": 1392,
      "çıŃ": 1393,
      "èīºæľ¯": 1394,
      "åį±": 1395,
      "èĽ": 1396,
      "çĺ": 1397,
      "åı¥": 1398,
      "éĶĻ": 1399,
      "æĽ¾": 1400,
      "æĿİ": 1401,
      "æĢ§çļĦ": 1402,
      "ä¼łç»Ł": 1403,
      "an": 1404,
      "å¤ĦçĲĨ": 1405,
      "çŁŃ": 1406,
      "ç»ĵæŀĦ": 1407,
      "ä¸¾": 1408,
      "åįĬ": 1409,
      "ç½ĳç»ľ": 1410,
      ",\"": 1411,
      "ç§»": 1412,
      "çŁ¥éģĵ": 1413,
      "äºļ": 1414,
      "è´§": 1415,
      "è½½": 1416,
      "åĤ": 1417,
      "æĭħ": 1418,
      "åºĶçĶ¨": 1419,
      "å½ķ": 1420,
      "èĳĹ": 1421,
      "æ¶²": 1422,
      "ä»¤": 1423,
      "çĻĮ": 1424,
      "å©": 1425,
      "ä¿ĿæĬ¤": 1426,
      "ç²¾ç¥ŀ": 1427,
      "æľīæķĪ": 1428,
      "èĴ": 1429,
      "éĢłæĪĲ": 1430,
      "éħ¸": 1431,
      "èĥĮ": 1432,
      "çļĩ": 1433,
      "çĶļèĩ³": 1434,
      "åħ¶ä¸Ń": 1435,
      "ç»§": 1436,
      "æĵį": 1437,
      "Ġb": 1438,
      "å®Ĺ": 1439,
      "ä»½": 1440,
      "æī¾": 1441,
      "åį°": 1442,
      "è§£åĨ³": 1443,
      "ä¹ĭåĲİ": 1444,
      "åİ¿": 1445,
      "è¡¨çİ°": 1446,
      "å®ŀéĻħ": 1447,
      "æŃ¦": 1448,
      "ç¬¬äºĮ": 1449,
      "èµĦæºĲ": 1450,
      "è¿ĺæľī": 1451,
      "ç«¯": 1452,
      "èĥŀ": 1453,
      "çŃĳ": 1454,
      "åŁİå¸Ĥ": 1455,
      "Ġm": 1456,
      "ç»Ŀ": 1457,
      "Ġ4": 1458,
      "å¯Ł": 1459,
      "ä»ĭ": 1460,
      "è®Ń": 1461,
      "å¸®": 1462,
      "Ġd": 1463,
      "æĺ¥": 1464,
      "ä¸ªäºº": 1465,
      "ç¬Ķ": 1466,
      "éħĴ": 1467,
      "ä¼¼": 1468,
      "å·¦": 1469,
      "åĩ»": 1470,
      "æĿ¿": 1471,
      "å¸ģ": 1472,
      "äºĨè§£": 1473,
      "æĺŁ": 1474,
      "åĪ¤": 1475,
      "äºĳ": 1476,
      "åıĭ": 1477,
      "åĵª": 1478,
      "Ġp": 1479,
      "åºŃ": 1480,
      "éĴ±": 1481,
      "æľ¨": 1482,
      "çŃĶ": 1483,
      "å®¡": 1484,
      "éģ¿": 1485,
      "æłĳ": 1486,
      "åıªæľī": 1487,
      "ä¸įæĸŃ": 1488,
      "é¡¹çĽ®": 1489,
      "é¢Ŀ": 1490,
      "éĨ": 1491,
      "å¿ĥçĲĨ": 1492,
      "å¥¹": 1493,
      "çº³": 1494,
      "æį¢": 1495,
      "åĲĦç§į": 1496,
      "çĸ¾çĹħ": 1497,
      "è¾ĵ": 1498,
      "æĢĿæĥ³": 1499,
      "or": 1500,
      "åĸľ": 1501,
      "he": 1502,
      "éª¨": 1503,
      "ç«¥": 1504,
      "åıĺåĮĸ": 1505,
      "æ¦Ĥ": 1506,
      "å®¹æĺĵ": 1507,
      "åĪ©çĶ¨": 1508,
      "æī¹": 1509,
      "è¯ī": 1510,
      "èĭ¥": 1511,
      "åľ°åĮº": 1512,
      "ä¿ĥ": 1513,
      "åįļ": 1514,
      "åı³": 1515,
      "åĪ»": 1516,
      "ç»Ĩèĥŀ": 1517,
      "èįī": 1518,
      "å»ºç«ĭ": 1519,
      "æħ¢": 1520,
      "çĽ®æłĩ": 1521,
      "æ°´å¹³": 1522,
      "åľ°æĸ¹": 1523,
      "ç»ĵæŀľ": 1524,
      "åĽº": 1525,
      "ç½Ĺ": 1526,
      "æĶ¿çŃĸ": 1527,
      "æ¤į": 1528,
      "æ³ķå¾ĭ": 1529,
      "12": 1530,
      "éĢĲ": 1531,
      "åĽ½éĻħ": 1532,
      "åĿļ": 1533,
      "æĿ¥è¯´": 1534,
      "æĿ¡ä»¶": 1535,
      "\"\"": 1536,
      "çĲĨè®º": 1537,
      "äººåĳĺ": 1538,
      "çĽ´æİ¥": 1539,
      "ä»ĸçļĦ": 1540,
      "é¥®": 1541,
      "æī§": 1542,
      "éļľ": 1543,
      "æİ¢": 1544,
      "çī¹åĪ«": 1545,
      "çģµ": 1546,
      "åį«": 1547,
      "èĹı": 1548,
      "åħµ": 1549,
      "ç¯": 1550,
      "ä¸»ä¹ī": 1551,
      "å¾ħ": 1552,
      "è¿ĲåĬ¨": 1553,
      "æ³¢": 1554,
      "ä¸įä»ħ": 1555,
      "ä¸įä¼ļ": 1556,
      "æ¼Ķ": 1557,
      "å¹´çļĦ": 1558,
      "èĤī": 1559,
      "å®¶éķ¿": 1560,
      "é£İéĻ©": 1561,
      "èĮ¶": 1562,
      "è´Ń": 1563,
      "éģĹ": 1564,
      "ä½Ļ": 1565,
      "æĿĤ": 1566,
      "é¾Ļ": 1567,
      "åħ¸": 1568,
      "ä¸ĥ": 1569,
      "æĺ¯åĲ¦": 1570,
      "åīĤ": 1571,
      "ç³ĸ": 1572,
      "åı¶": 1573,
      "åŁ¹åħ»": 1574,
      "éĩĬ": 1575,
      "ä»į": 1576,
      "åĿĹ": 1577,
      "çīĪ": 1578,
      "å§Ķ": 1579,
      "åħ¶å®ŀ": 1580,
      "ar": 1581,
      "it": 1582,
      "å¼ķèµ·": 1583,
      "æīįèĥ½": 1584,
      "le": 1585,
      "ä¸Ģæł·": 1586,
      "çĸ«": 1587,
      "éº": 1588,
      "ä¸įè¦ģ": 1589,
      "å¤«": 1590,
      "å°Ħ": 1591,
      "æıĲåĩº": 1592,
      "ä»¥ä¸Ĭ": 1593,
      "åĽłç´ł": 1594,
      "å»ºçŃĳ": 1595,
      "ç¨³": 1596,
      "èĭı": 1597,
      "èĻ½çĦ¶": 1598,
      "éĺ´": 1599,
      "å·¥ç¨ĭ": 1600,
      "äººç±»": 1601,
      "ç¦ı": 1602,
      "é¦Ļ": 1603,
      "ä¸Ńå¿ĥ": 1604,
      "æ¯Ķå¦Ĥ": 1605,
      "50": 1606,
      "æ¬¢": 1607,
      "è¾¾åĪ°": 1608,
      "æīĢæľī": 1609,
      "æĦ¿": 1610,
      "å¸Į": 1611,
      "éĩĳèŀį": 1612,
      "æĹ¶æľŁ": 1613,
      "è®¡ç®Ĺ": 1614,
      "æĽ²": 1615,
      "è¯¯": 1616,
      "éĺ¶æ®µ": 1617,
      "å½Ĵ": 1618,
      "åĶĲ": 1619,
      "çĽĺ": 1620,
      "ç´¢": 1621,
      "éĺħ": 1622,
      "éĴĪ": 1623,
      "è¿Ľåħ¥": 1624,
      "30": 1625,
      "ç«Ļ": 1626,
      "ä¹ħ": 1627,
      "st": 1628,
      "æĹ¢": 1629,
      "å°±ä¼ļ": 1630,
      "æİĪ": 1631,
      "ä¸°": 1632,
      "al": 1633,
      "åĪ¶åº¦": 1634,
      "æľºæŀĦ": 1635,
      "åĢº": 1636,
      "è®¸å¤ļ": 1637,
      "ä¹İ": 1638,
      "è¡Įä¸ļ": 1639,
      "èĻĳ": 1640,
      "èıĮ": 1641,
      "Ġ,": 1642,
      "çİ°ä»£": 1643,
      "çĩ": 1644,
      "èµ·æĿ¥": 1645,
      "æĹ¶ä»£": 1646,
      "è¿ĩç¨ĭä¸Ń": 1647,
      "ä¸¤ä¸ª": 1648,
      "æľīåħ³": 1649,
      "æ¨¡å¼ı": 1650,
      "åģĩ": 1651,
      "èİ·å¾Ĺ": 1652,
      "åĪĽæĸ°": 1653,
      "ä½ĵçļĦ": 1654,
      "é£ŀ": 1655,
      "ä»ĺ": 1656,
      "ä¹Ŀ": 1657,
      "å·´": 1658,
      "è¶£": 1659,
      "æ¸Ĳ": 1660,
      "æķ£": 1661,
      "ä¹ĭä¸Ģ": 1662,
      "è¯Ńè¨Ģ": 1663,
      "å¼Ģåıĳ": 1664,
      "è´¨éĩı": 1665,
      "é»ĳ": 1666,
      "çĲĨè§£": 1667,
      "äº«": 1668,
      "åĪĺ": 1669,
      "è·Ł": 1670,
      "åŃķ": 1671,
      "ä¸¥éĩį": 1672,
      "äº§ä¸ļ": 1673,
      "éĵģ": 1674,
      "ç´§": 1675,
      "ä¸įåı¯": 1676,
      "å°¿": 1677,
      "æı¡": 1678,
      "äº¿": 1679,
      "éĿĻ": 1680,
      "æĢ¥": 1681,
      "è°ĵ": 1682,
      "å½¢å¼ı": 1683,
      "éľĢæ±Ĥ": 1684,
      "å®ĭ": 1685,
      "è¿½": 1686,
      "çĨŁ": 1687,
      "ç£": 1688,
      "å½ĵæĹ¶": 1689,
      "æĿ¾": 1690,
      "ç»¼": 1691,
      "çļĦå¤§": 1692,
      "è·µ": 1693,
      "ç½ª": 1694,
      "éĩĩçĶ¨": 1695,
      "è´£ä»»": 1696,
      "å¸®åĬ©": 1697,
      "æķĪæŀľ": 1698,
      "å¢ŀéķ¿": 1699,
      "åĢŁ": 1700,
      "è¯¸": 1701,
      "å®ĮæĪĲ": 1702,
      "éŃ": 1703,
      "å¹¼": 1704,
      "è¯¾ç¨ĭ": 1705,
      "ç»ĵåĲĪ": 1706,
      "å¾ĹåĪ°": 1707,
      "éļıçĿĢ": 1708,
      "ä¹³": 1709,
      "Ġn": 1710,
      "åĽ°": 1711,
      "åħ³äºİ": 1712,
      "å¤ļçļĦ": 1713,
      "åı«": 1714,
      "ic": 1715,
      "çĶ³": 1716,
      "çĶ²": 1717,
      "ç¥¨": 1718,
      "éĶ®": 1719,
      "åħļ": 1720,
      "ä»·æł¼": 1721,
      "åºĬ": 1722,
      "éĢĢ": 1723,
      "åįķä½į": 1724,
      "æĿĲæĸĻ": 1725,
      "èĦī": 1726,
      "ä»»ä½ķ": 1727,
      "èĤ¿": 1728,
      "åģľ": 1729,
      "åıªæĺ¯": 1730,
      "èĭ¦": 1731,
      "çļĦéĹ®é¢ĺ": 1732,
      "Ġä¸Ģ": 1733,
      "è°Ī": 1734,
      "æĹ¥æľ¬": 1735,
      "æĶ¹éĿ©": 1736,
      "æĦıä¹ī": 1737,
      "é¡º": 1738,
      "æ´²": 1739,
      "åĨ²": 1740,
      "æľĢåĲİ": 1741,
      "æ±¡": 1742,
      "æ¶Īè´¹": 1743,
      "çĹĩçĬ¶": 1744,
      "15": 1745,
      "éĿł": 1746,
      "æĥ¯": 1747,
      "äºĨä¸Ģ": 1748,
      "èĽĭ": 1749,
      "æĸ°çļĦ": 1750,
      "æ¬§": 1751,
      "æŃĮ": 1752,
      "å®Įåħ¨": 1753,
      "æĹłæ³ķ": 1754,
      "å°¤": 1755,
      "å®¶åºŃ": 1756,
      "æĦıè¯Ĩ": 1757,
      "åĩıå°ĳ": 1758,
      "ç¬¬ä¸ī": 1759,
      "çī©è´¨": 1760,
      "äº¤æĺĵ": 1761,
      "èĻļ": 1762,
      "éĥ¨éĹ¨": 1763,
      "å®Ŀå®Ŀ": 1764,
      "éĻĪ": 1765,
      "éĵ¶è¡Į": 1766,
      "çĶŁåĳ½": 1767,
      "åĦ¿ç«¥": 1768,
      "æĪĲåĬŁ": 1769,
      "å°ģ": 1770,
      "éģĩ": 1771,
      "ç§¯æŀģ": 1772,
      "å»¶": 1773,
      "æĢİä¹Ī": 1774,
      "è½¯": 1775,
      "å®ŀè·µ": 1776,
      "çĪ¶æ¯į": 1777,
      "ç¨ĭåº¦": 1778,
      "èĤĿ": 1779,
      "å¥ĩ": 1780,
      "èº«ä½ĵ": 1781,
      "ä»İèĢĮ": 1782,
      "åŃ¦çĶŁçļĦ": 1783,
      "ä¹¡": 1784,
      "æĿĢ": 1785,
      "è¿ĻéĩĮ": 1786,
      "...": 1787,
      "åħ¨åĽ½": 1788,
      "å½©": 1789,
      "æ£ĢæŁ¥": 1790,
      "èĨľ": 1791,
      "æŃ£å¸¸": 1792,
      "åŃ£": 1793,
      "å®Ī": 1794,
      "åĬ³åĬ¨": 1795,
      "éķ¿æľŁ": 1796,
      "é½": 1797,
      "å®£": 1798,
      "æİĮ": 1799,
      "è´µ": 1800,
      "æĺİæĺ¾": 1801,
      "æĶ¿æ²»": 1802,
      "è®¨": 1803,
      "åĲĹ": 1804,
      "éĺ¿": 1805,
      "ä»£è¡¨": 1806,
      "Ġ5": 1807,
      "è®¤è¯Ĩ": 1808,
      "18": 1809,
      "éĢģ": 1810,
      "æĺ¯åľ¨": 1811,
      "æ°ĳæĹı": 1812,
      "éķĩ": 1813,
      "ä¸ĢæŃ¥": 1814,
      "æĪĳä»¬çļĦ": 1815,
      "ä»¥ä¸ĭ": 1816,
      "ç«ŀ": 1817,
      "å¤§éĩı": 1818,
      "è¿Ļæł·çļĦ": 1819,
      "çĶ·": 1820,
      "åº§": 1821,
      "ç»¿": 1822,
      "ç¬¦": 1823,
      "åĶ®": 1824,
      "é¢ĨåŁŁ": 1825,
      "è¯Ĭ": 1826,
      "äºĪ": 1827,
      "æī©": 1828,
      "æĮ¥": 1829,
      "ç»¼åĲĪ": 1830,
      "äº¡": 1831,
      "å¼±": 1832,
      "æĪĲæľ¬": 1833,
      "æ´¾": 1834,
      "åĿı": 1835,
      "æĴŃ": 1836,
      "éĺħè¯»": 1837,
      "çĦ¶åĲİ": 1838,
      "ä½ĵç³»": 1839,
      "åĨ³å®ļ": 1840,
      "é¦ĸåħĪ": 1841,
      "ç¯ĩ": 1842,
      "çļĦåıĳå±ķ": 1843,
      "åĪº": 1844,
      "æĢĢ": 1845,
      "æĪı": 1846,
      "çİī": 1847,
      "ç®Ģåįķ": 1848,
      "æĺ¯ä¸Ģä¸ª": 1849,
      "é¢ĳ": 1850,
      "æ°ı": 1851,
      "åħ°": 1852,
      "åĺ": 1853,
      "Ġl": 1854,
      "is": 1855,
      "æĶ¹åıĺ": 1856,
      "çĸĳ": 1857,
      "ç©ºéĹ´": 1858,
      "è¡¡": 1859,
      "èĦ±": 1860,
      "çļĦäºĭ": 1861,
      "åĮĹäº¬": 1862,
      "çľŁæŃ£": 1863,
      "èĤł": 1864,
      "ä¸Ģæ¬¡": 1865,
      "åħ³æ³¨": 1866,
      "æģ¶": 1867,
      "èĸ": 1868,
      "å³": 1869,
      "ç»©": 1870,
      "çİ°è±¡": 1871,
      "æĻļ": 1872,
      "ä¹łæĥ¯": 1873,
      "æ¯Ľ": 1874,
      "ç¥ĸ": 1875,
      "åħ³éĶ®": 1876,
      "åĳ¼": 1877,
      "æ¥¼": 1878,
      "è§¦": 1879,
      "å·¨": 1880,
      "çĬ¯": 1881,
      "ä¾§": 1882,
      "æīĺ": 1883,
      "ä¿ĿæĮģ": 1884,
      "çīĽ": 1885,
      "çī¹çĤ¹": 1886,
      "è¡¨ç¤º": 1887,
      "ä¹±": 1888,
      "ä¹Łæľī": 1889,
      "ro": 1890,
      "åĨ·": 1891,
      "åıĹåĪ°": 1892,
      "11": 1893,
      "èľ": 1894,
      "å¥Ĺ": 1895,
      "çīĮ": 1896,
      "åĲ¯": 1897,
      "çľĭåĪ°": 1898,
      "éĴŁ": 1899,
      "èĤĮ": 1900,
      "è®¾å¤ĩ": 1901,
      "çĽ®çļĦ": 1902,
      "çĬ¶æĢģ": 1903,
      "åįĸ": 1904,
      "èħº": 1905,
      "åĪļ": 1906,
      "é±": 1907,
      "åĲĪåĲĮ": 1908,
      "ä¸ĸçºª": 1909,
      "åħ¨çĲĥ": 1910,
      "èĮĥåĽ´": 1911,
      "å´": 1912,
      "ä¸ľè¥¿": 1913,
      "Ġo": 1914,
      "ä»¥åĲİ": 1915,
      "ç¼©": 1916,
      "èıľ": 1917,
      "åŃ©åŃĲçļĦ": 1918,
      "åī§": 1919,
      "Ġf": 1920,
      "é±¼": 1921,
      "å®ŀæĸ½": 1922,
      "éĻįä½İ": 1923,
      "åĪĽéĢł": 1924,
      "æ¹ĸ": 1925,
      "å¹¶ä¸Ķ": 1926,
      "ãĢĭ,": 1927,
      "ä¸įåĲĮçļĦ": 1928,
      "å¨ģ": 1929,
      "æĵįä½ľ": 1930,
      "è¶ħè¿ĩ": 1931,
      "ä¿ĥè¿Ľ": 1932,
      "éĻĦ": 1933,
      "åĲĪä½ľ": 1934,
      "åħ·ä½ĵ": 1935,
      "èĵ": 1936,
      "ä½ľåĵģ": 1937,
      "æĶ¯æĮģ": 1938,
      "ç»ıéªĮ": 1939,
      "ç§¦": 1940,
      "ç¤¼": 1941,
      "ä¸ĵå®¶": 1942,
      "å®ľ": 1943,
      "ç»į": 1944,
      "å¤®": 1945,
      "å°ļ": 1946,
      "é¦Ĩ": 1947,
      "åĽ½åĨħ": 1948,
      "éĩįè¦ģçļĦ": 1949,
      "æ°§": 1950,
      "èĥľ": 1951,
      "ç»ıè¿ĩ": 1952,
      "ä¸ĢçĽ´": 1953,
      "åĤ¨": 1954,
      "çĥĪ": 1955,
      "ä¸ºä»Ģä¹Ī": 1956,
      "æŃ£ç¡®": 1957,
      "æĭ¿": 1958,
      "å±ŀäºİ": 1959,
      "å¾Ģå¾Ģ": 1960,
      "ç¼ĵ": 1961,
      "å¹ħ": 1962,
      "çĿ¡": 1963,
      "è®¡åĪĴ": 1964,
      "çĺ¤": 1965,
      "çĥŁ": 1966,
      "çĶŁçī©": 1967,
      "ion": 1968,
      "åıĤä¸İ": 1969,
      "åį¡": 1970,
      "es": 1971,
      "æ°¸": 1972,
      "æĭĽ": 1973,
      "å·¥ä¸ļ": 1974,
      "éĢı": 1975,
      "å¤ı": 1976,
      "çĮ®": 1977,
      "éģ¿åħį": 1978,
      "èĤ¥": 1979,
      "è¯¾åłĤ": 1980,
      "ä¾µ": 1981,
      "ä½ľèĢħ": 1982,
      "ç¡¬": 1983,
      "å½ĵçĦ¶": 1984,
      "ä¸Ģèµ·": 1985,
      "ä»Ĭå¤©": 1986,
      "ä½łçļĦ": 1987,
      "æĮģç»Ń": 1988,
      "æĺ¯ä¸Ģ": 1989,
      "è´·": 1990,
      "å»ºè®®": 1991,
      "åħ±åĲĮ": 1992,
      "as": 1993,
      "ç¡®å®ļ": 1994,
      "Ġ-": 1995,
      "éĹ»": 1996,
      "èħ¹": 1997,
      "çĶ¨äºİ": 1998,
      "èĢĥèĻĳ": 1999,
      "è´¥": 2000,
      "ç§ĭ": 2001,
      "æĮīçħ§": 2002,
      "Ġw": 2003,
      "100": 2004,
      "é¡¾": 2005,
      "æĩ": 2006,
      "æĳĦ": 2007,
      "åĬ±": 2008,
      "å°Ĭ": 2009,
      "åĮĸçļĦ": 2010,
      "et": 2011,
      "ac": 2012,
      "çĻ»": 2013,
      "æ±ĩ": 2014,
      "åıĬæĹ¶": 2015,
      "åºĶå½ĵ": 2016,
      "é£Łçī©": 2017,
      "Ġthe": 2018,
      "èį¯çī©": 2019,
      "é¾Ħ": 2020,
      "åĩĢ": 2021,
      "ä¸įè¿ĩ": 2022,
      "çīĻ": 2023,
      "å¸ĮæľĽ": 2024,
      "èĦı": 2025,
      "è¶ĭ": 2026,
      "ç»ıèĲ¥": 2027,
      "èĢĮæĺ¯": 2028,
      "å¹¶ä¸į": 2029,
      "èĥĥ": 2030,
      "æĶ»": 2031,
      "èĦĤ": 2032,
      "è§Ħæ¨¡": 2033,
      "åģı": 2034,
      "æİª": 2035,
      "åľ£": 2036,
      "æ¯ķ": 2037,
      "å¾Ħ": 2038,
      "æĺİç¡®": 2039,
      "å§ĵ": 2040,
      "æ¥ļ": 2041,
      "åºĵ": 2042,
      "æĹħ": 2043,
      "æ··": 2044,
      "å®ĥä»¬": 2045,
      "æ±½": 2046,
      "åŃĶ": 2047,
      "èµĦéĩĳ": 2048,
      "å®ŀéªĮ": 2049,
      "éĥ½æľī": 2050,
      "éģį": 2051,
      "åį·": 2052,
      "çĽ¸å¯¹": 2053,
      "å¥¶": 2054,
      "å·¦åı³": 2055,
      "èĥİ": 2056,
      "ä¼°": 2057,
      "æĢĿç»´": 2058,
      "å¦ĩ": 2059,
      "çļĦéĩįè¦ģ": 2060,
      "çłģ": 2061,
      "å¤ľ": 2062,
      "å®½": 2063,
      "èģļ": 2064,
      "æĸĹ": 2065,
      "è·Ŀ": 2066,
      "åª": 2067,
      "æ¹¿": 2068,
      "ç¥ŀç»ı": 2069,
      "æķ´ä¸ª": 2070,
      "å°¤åħ¶": 2071,
      "æ²Ļ": 2072,
      "çº¸": 2073,
      "å¦ĤæŃ¤": 2074,
      "æİ¥åıĹ": 2075,
      "çģŃ": 2076,
      "æŀ¶": 2077,
      "æľĭ": 2078,
      "æĦŁæŁĵ": 2079,
      "èĪª": 2080,
      "æľīäºĽ": 2081,
      "æĭ¥": 2082,
      "éĩįçĤ¹": 2083,
      "é²ľ": 2084,
      "åİŁåĪĻ": 2085,
      "éĻ¤äºĨ": 2086,
      "è¯´æĺİ": 2087,
      "åľŁåľ°": 2088,
      "ä¹Łä¸į": 2089,
      "ing": 2090,
      "åľĨ": 2091,
      "èµĦäº§": 2092,
      "çĽĽ": 2093,
      "ä¿Ĺ": 2094,
      "æĸ¹åĲĳ": 2095,
      "æĤ¨": 2096,
      "ç¨³å®ļ": 2097,
      "åħħåĪĨ": 2098,
      "èĶ": 2099,
      "æĽ´åĬł": 2100,
      "æĻºèĥ½": 2101,
      "ĠãĢĬ": 2102,
      "ä¿ĿéĻ©": 2103,
      "éĺ»": 2104,
      "æ´Ĺ": 2105,
      "ç¹": 2106,
      "åĳĪ": 2107,
      "æĸĩç«ł": 2108,
      "é¼ĵ": 2109,
      "æľªæĿ¥": 2110,
      "ä¸ļåĬ¡": 2111,
      "ç»ª": 2112,
      "çĳ": 2113,
      "ä¸°å¯Į": 2114,
      "ç§°ä¸º": 2115,
      "éĽ¨": 2116,
      "çĽĸ": 2117,
      "çļĦæĥħåĨµ": 2118,
      "è¿Ľä¸ĢæŃ¥": 2119,
      "äº®": 2120,
      "ç§ĳæĬĢ": 2121,
      "åĿĲ": 2122,
      "ä¹ı": 2123,
      "é¡¶": 2124,
      "åī¯": 2125,
      "éļĲ": 2126,
      "äº¦": 2127,
      "ä¸Ģä¸ĭ": 2128,
      "çİ©": 2129,
      "æĺ¯ä¸Ģç§į": 2130,
      "éĵ¾": 2131,
      "ç¹ģ": 2132,
      "ç´¯": 2133,
      "èĤº": 2134,
      "çĭ¬ç«ĭ": 2135,
      "éĿ¢çļĦ": 2136,
      "Ġe": 2137,
      "å¯Ĵ": 2138,
      "ç§Ģ": 2139,
      "åĮ»éĻ¢": 2140,
      "åĩºæĿ¥": 2141,
      "ä¿Ŀè¯ģ": 2142,
      "æī§è¡Į": 2143,
      "æıĲåįĩ": 2144,
      "ä¼´": 2145,
      "ç»ıå¸¸": 2146,
      "åİļ": 2147,
      "æľ«": 2148,
      "çĶ°": 2149,
      "æ¬²": 2150,
      "ãĢĭãĢĬ": 2151,
      "ä»ĭç»į": 2152,
      "æĺ¾ç¤º": 2153,
      "è°¢": 2154,
      "æľĭåıĭ": 2155,
      "æĶ¶åħ¥": 2156,
      "åıĳå±ķçļĦ": 2157,
      "å¤ļæķ°": 2158,
      "åİĤ": 2159,
      "èĢ³": 2160,
      "ç§ģ": 2161,
      "åĲĽ": 2162,
      "å¯»": 2163,
      "ç©¿": 2164,
      "å¹³åı°": 2165,
      "æ¶¨": 2166,
      "æķĳ": 2167,
      "å¼¹": 2168,
      "æĿŁ": 2169,
      "æıı": 2170,
      "ç«ŀäºī": 2171,
      "æķı": 2172,
      "æĿ¥è¶Ĭ": 2173,
      "æľĢç»Ī": 2174,
      "æł¸å¿ĥ": 2175,
      "å¹¼åĦ¿": 2176,
      "å°¼": 2177,
      "æĬĺ": 2178,
      "çĶ¨æĪ·": 2179,
      "åıįåºĶ": 2180,
      "æĮĩå¯¼": 2181,
      "ç¦ģ": 2182,
      "è¶ĬæĿ¥è¶Ĭ": 2183,
      "èĲ¥åħ»": 2184,
      "æ²ī": 2185,
      "èĩªæĪĳ": 2186,
      "åĬłå¼º": 2187,
      "æ½ľ": 2188,
      "è°ĥæķ´": 2189,
      "æķħäºĭ": 2190,
      "å¥ĸ": 2191,
      "æĸĩåŃ¦": 2192,
      "éĢĶ": 2193,
      "åŃĻ": 2194,
      "çĶ³è¯·": 2195,
      "æĹ§": 2196,
      "æ®Ĭ": 2197,
      "ä¹ĭåīį": 2198,
      "èŃ": 2199,
      "ä¼ĳ": 2200,
      "èĩªçĶ±": 2201,
      "è¯Ħä»·": 2202,
      "åĢį": 2203,
      "éĩİ": 2204,
      "èĩªèº«": 2205,
      "60": 2206,
      "é«ĺçļĦ": 2207,
      "åįµ": 2208,
      "åĲĮåŃ¦": 2209,
      "åĲĪçĲĨ": 2210,
      "æ´ĭ": 2211,
      "è¿Ŀ": 2212,
      "æ¶ī": 2213,
      "é¢Ī": 2214,
      "çĶŁçļĦ": 2215,
      "èģĶç½ĳ": 2216,
      "æľīä¸Ģ": 2217,
      "ä¸įå¾Ĺ": 2218,
      "Ġr": 2219,
      "èĴĻ": 2220,
      "åıªè¦ģ": 2221,
      "å®ĥçļĦ": 2222,
      "èĦļ": 2223,
      "åĪĳ": 2224,
      "åĩºäºĨ": 2225,
      "ç»§ç»Ń": 2226,
      "å®ģ": 2227,
      "è§Ĥå¯Ł": 2228,
      "èĢħçļĦ": 2229,
      "å¼Ģå±ķ": 2230,
      "èĤ¾": 2231,
      "åı¦å¤ĸ": 2232,
      "å¾ª": 2233,
      "åģ¿": 2234,
      "è¡ĮæĶ¿": 2235,
      "åĸľæ¬¢": 2236,
      "äº¤æµģ": 2237,
      "çļĦè¯Ŀ": 2238,
      "13": 2239,
      "40": 2240,
      "è½®": 2241,
      "éĢļå¸¸": 2242,
      "é½Ĳ": 2243,
      "é¢Ĩå¯¼": 2244,
      "ĠäºĮ": 2245,
      "åĬª": 2246,
      "åįģåĪĨ": 2247,
      "æĪĲéķ¿": 2248,
      "éľ²": 2249,
      "æ¯ıä¸ª": 2250,
      "ä¾ĭå¦Ĥ": 2251,
      "æ³Ľ": 2252,
      "æ¶¦": 2253,
      "æľºä¼ļ": 2254,
      "æĪĲäºĨ": 2255,
      "åĩºçļĦ": 2256,
      "ç¨ĭåºı": 2257,
      "ç»Łä¸Ģ": 2258,
      "åªĴ": 2259,
      "æĬĳ": 2260,
      "åĪ¶éĢł": 2261,
      "å¥³æĢ§": 2262,
      "æĢĿèĢĥ": 2263,
      "å¦Īå¦Ī": 2264,
      "åĬĽçļĦ": 2265,
      "æİĮæı¡": 2266,
      "çĶµåŃĲ": 2267,
      "Ġ19": 2268,
      "éĴ¢": 2269,
      "åĲİçļĦ": 2270,
      "éĤ£äºĽ": 2271,
      "æķ°åŃ¦": 2272,
      "åĩĨå¤ĩ": 2273,
      "è¿ĲçĶ¨": 2274,
      "æĦŁè§ī": 2275,
      "çĿ£": 2276,
      "å²Ľ": 2277,
      "æ¡¥": 2278,
      "è¡¨è¾¾": 2279,
      "çĥ§": 2280,
      "éĻĨ": 2281,
      "æ±¡æŁĵ": 2282,
      "çĦ¶èĢĮ": 2283,
      "è§īå¾Ĺ": 2284,
      "é¹": 2285,
      "Ġ6": 2286,
      "ä¸ĭéĻį": 2287,
      "æĺ¯æĮĩ": 2288,
      "åıĸå¾Ĺ": 2289,
      "æīĢè°ĵ": 2290,
      "éĴĪå¯¹": 2291,
      "æİªæĸ½": 2292,
      "å±ĭ": 2293,
      "åĢĴ": 2294,
      "ä¹Łä¼ļ": 2295,
      "16": 2296,
      "çī¹å¾ģ": 2297,
      "ä»ĸä»¬çļĦ": 2298,
      "æł·çļĦ": 2299,
      "ä¸įè¶³": 2300,
      "Ġin": 2301,
      "èµĦæľ¬": 2302,
      "æ¦Ĥå¿µ": 2303,
      "æļ´": 2304,
      "åĪ©çĽĬ": 2305,
      "çŃīçŃī": 2306,
      "éī": 2307,
      "çĹħæ¯Ĵ": 2308,
      "ä¹ĭéĹ´çļĦ": 2309,
      "è¡£": 2310,
      "ä¸ºä¸»": 2311,
      "æĸ¹æ¡Ī": 2312,
      "èĢĥè¯ķ": 2313,
      "éĢĲæ¸Ĳ": 2314,
      "ä¹Łå°±æĺ¯": 2315,
      "è®Ńç»ĥ": 2316,
      "Ġg": 2317,
      "ç¼ĺ": 2318,
      "åŁºéĩĳ": 2319,
      "ç²ī": 2320,
      "å·Ŀ": 2321,
      "åĨľä¸ļ": 2322,
      "æľºåĪ¶": 2323,
      "è°ģ": 2324,
      "èĽĭçĻ½": 2325,
      "éī´": 2326,
      "åĪĨä¸º": 2327,
      "æ±½è½¦": 2328,
      "æħ§": 2329,
      "çļĦå½±åĵį": 2330,
      "èģĶç³»": 2331,
      "æ±ł": 2332,
      "åĬ¨çī©": 2333,
      "å©ļ": 2334,
      "ä¸´åºĬ": 2335,
      "é¢Ħéĺ²": 2336,
      "åħ´è¶£": 2337,
      "æľ±": 2338,
      "åŃ¦éĻ¢": 2339,
      "é£Łåĵģ": 2340,
      "åķĨä¸ļ": 2341,
      "çļĦé«ĺ": 2342,
      "çº¯": 2343,
      "æĿ¥çľĭ": 2344,
      "æĢķ": 2345,
      "æ²Ł": 2346,
      "è´§å¸ģ": 2347,
      "æ¯ıå¤©": 2348,
      "25": 2349,
      "èŃ¦": 2350,
      "æľŁéĹ´": 2351,
      "ä¸Ńåįİ": 2352,
      "åİĭåĬĽ": 2353,
      "åĪĨåĪ«": 2354,
      "èģĮä¸ļ": 2355,
      "ed": 2356,
      "åħ¨éĿ¢": 2357,
      "æł¹æľ¬": 2358,
      "éķľ": 2359,
      "ä¸Ńå¤®": 2360,
      "åĿĢ": 2361,
      "åıªèĥ½": 2362,
      "äººä½ĵ": 2363,
      "éĩįè§Ĩ": 2364,
      "ä»ª": 2365,
      "è¾ĳ": 2366,
      "æĹ¦": 2367,
      "å·§": 2368,
      "æĸĩæĺİ": 2369,
      "çº·": 2370,
      "è¿ģ": 2371,
      "Ġä¸ī": 2372,
      "æİī": 2373,
      "åĬĽéĩı": 2374,
      "åĨ¬": 2375,
      "æĪĺçķ¥": 2376,
      "äº¤éĢļ": 2377,
      "çŃ¾": 2378,
      "ä¸ĭçļĦ": 2379,
      "éĢŁåº¦": 2380,
      "éº»": 2381,
      "æ®ĸ": 2382,
      "ä½³": 2383,
      "è®¿": 2384,
      "¤Ĳ": 2385,
      "è¾ħ": 2386,
      "éĥ½ä¼ļ": 2387,
      "èµĽ": 2388,
      "æĬµ": 2389,
      "æĬ¥åĳĬ": 2390,
      "çİ°å®ŀ": 2391,
      "80": 2392,
      "æĽ´å¤ļ": 2393,
      "æĪĳçļĦ": 2394,
      "ç»ĺ": 2395,
      "ä¸½": 2396,
      "å¸¦æĿ¥": 2397,
      "éĩĩåıĸ": 2398,
      "å¡ŀ": 2399,
      "æĪĺäºī": 2400,
      "ä¸Ĭæµ·": 2401,
      "æĹłè®º": 2402,
      "çļĩå¸Ŀ": 2403,
      "è§ĦèĮĥ": 2404,
      "ç¿»": 2405,
      "åľ¨äºİ": 2406,
      "éŁ³ä¹Ĳ": 2407,
      "è¸": 2408,
      "ç«Ł": 2409,
      "ç§ĺ": 2410,
      "å¹¸": 2411,
      "è´´": 2412,
      "å¸¸è§ģ": 2413,
      "åıĳæĮ¥": 2414,
      "çļĦæľĢ": 2415,
      "ç¢į": 2416,
      "èµĦæĸĻ": 2417,
      "èĭ±åĽ½": 2418,
      "èĭĹ": 2419,
      "ä¸įåĪ°": 2420,
      "çļĦæĸ¹æ³ķ": 2421,
      "æ»¡è¶³": 2422,
      "å¹´ä»£": 2423,
      "çĶŁæĢģ": 2424,
      "Ġh": 2425,
      "æľ¬èº«": 2426,
      "çĶŁéķ¿": 2427,
      "åĬªåĬĽ": 2428,
      "ç¾İåħĥ": 2429,
      "ä¸īä¸ª": 2430,
      "èĪ¹": 2431,
      "è§Ĵåº¦": 2432,
      "åĮ»çĸĹ": 2433,
      "æĥħç»ª": 2434,
      "åĶ¯": 2435,
      "åºŁ": 2436,
      "åĿļæĮģ": 2437,
      "äºİæĺ¯": 2438,
      "çļĦæĹ¶éĹ´": 2439,
      "ç»ĦæĪĲ": 2440,
      "åºĦ": 2441,
      "æľīäºĨ": 2442,
      "ä¸Ģå®ļè¦ģ": 2443,
      "èĤ¤": 2444,
      "è¡Ģç®¡": 2445,
      "è¿«": 2446,
      "ä¼ĺåĬ¿": 2447,
      "åıĤåĬł": 2448,
      "ä¿Ŀéļľ": 2449,
      "æĺł": 2450,
      "è§£éĩĬ": 2451,
      "æī¬": 2452,
      "14": 2453,
      "åĲ´": 2454,
      "å¿ħè¦ģ": 2455,
      "åĸĿ": 2456,
      "ä½įç½®": 2457,
      "æĿ¥èĩª": 2458,
      "åĩłä¸ª": 2459,
      "å¤Ħäºİ": 2460,
      "è¿ĩåİ»": 2461,
      "èµı": 2462,
      "åĲ§": 2463,
      "å°ıæĹ¶": 2464,
      "æķ°éĩı": 2465,
      "åĪ¸": 2466,
      "Ġan": 2467,
      "å¿Ĩ": 2468,
      "å¼ķå¯¼": 2469,
      "æľīäºº": 2470,
      "å¤įæĿĤ": 2471,
      "ä»»åĬ¡": 2472,
      "åĮºåŁŁ": 2473,
      "ç¬¦åĲĪ": 2474,
      "è¿ħ": 2475,
      "è¯ģæĺİ": 2476,
      "Ġ0": 2477,
      "åĲİæĿ¥": 2478,
      "å¡Ķ": 2479,
      "äººæīį": 2480,
      "èħĶ": 2481,
      "æķ°åŃĹ": 2482,
      "è¯¢": 2483,
      "å¯º": 2484,
      "éĶĢåĶ®": 2485,
      "æĽ¿": 2486,
      "è´¸": 2487,
      "å®ļçļĦ": 2488,
      "èĢĮè¨Ģ": 2489,
      "äºĭå®ŀ": 2490,
      "éĽĦ": 2491,
      "17": 2492,
      "çĤ¼": 2493,
      "æ³ķéĻ¢": 2494,
      "å¢Ļ": 2495,
      "è¿İ": 2496,
      "æĻ®éĢļ": 2497,
      "å¡ĳ": 2498,
      "åŃ¦ç§ĳ": 2499,
      "è·Į": 2500,
      "è±Ĩ": 2501,
      "ä»¥æĿ¥": 2502,
      "èĩ£": 2503,
      "æ¯«": 2504,
      "çļĦä¸Ģä¸ª": 2505,
      "åĪ¤æĸŃ": 2506,
      "èĥ¡": 2507,
      "æķĻæİĪ": 2508,
      "éľĩ": 2509,
      "çĶ¨çļĦ": 2510,
      "åı¦ä¸Ģ": 2511,
      "æīĭæľ¯": 2512,
      "è®¢": 2513,
      "æ¤įçī©": 2514,
      "è¶ĭåĬ¿": 2515,
      "el": 2516,
      "èĻ«": 2517,
      "éĹŃ": 2518,
      "èĢĲ": 2519,
      "è£Ĥ": 2520,
      "çĽ¸å½ĵ": 2521,
      "åĲī": 2522,
      "æĽ¹": 2523,
      "å®¢æĪ·": 2524,
      "åľ°ä½į": 2525,
      "æĸĩä»¶": 2526,
      "çģ¯": 2527,
      "ä¸Ŀ": 2528,
      "ent": 2529,
      "æ¢¦": 2530,
      "om": 2531,
      "id": 2532,
      "ä¹Łåı¯ä»¥": 2533,
      "am": 2534,
      "æĪĲç»©": 2535,
      "åĬŀæ³ķ": 2536,
      "èį£": 2537,
      "èĤ¯": 2538,
      "æīĭæ®µ": 2539,
      "åĵ²": 2540,
      "æĸ¹éĿ¢çļĦ": 2541,
      "çĩĥ": 2542,
      "ä½ĵçİ°": 2543,
      "Ġre": 2544,
      "å¹´æĿ¥": 2545,
      "æµĵ": 2546,
      "çī¹æ®Ĭ": 2547,
      "æĿ¨": 2548,
      "å¼ĥ": 2549,
      "çļĦä¸»è¦ģ": 2550,
      "åĵªäºĽ": 2551,
      "æĭŁ": 2552,
      "èĥĨ": 2553,
      "å¹³åĿĩ": 2554,
      "é²ģ": 2555,
      "è¡°": 2556,
      "åŃ¦ä¼ļ": 2557,
      "éĽ¶": 2558,
      "å¯¹è±¡": 2559,
      "çŁ¿": 2560,
      "è¿¹": 2561,
      "ç¼ºä¹ı": 2562,
      "è°ĥæŁ¥": 2563,
      "äºĴèģĶç½ĳ": 2564,
      "è°·": 2565,
      "éĨĴ": 2566,
      "çģ¾": 2567,
      "å·¥åħ·": 2568,
      "éĶĻè¯¯": 2569,
      "éļĶ": 2570,
      "éĿ¢ç§¯": 2571,
      "çĽĲ": 2572,
      "èĪŀ": 2573,
      "å¼ĢæĶ¾": 2574,
      "è¯ĳ": 2575,
      "è§ĦåĪĴ": 2576,
      "åĽ°éļ¾": 2577,
      "é¸¡": 2578,
      "å¼Ł": 2579,
      "çĦ¦": 2580,
      "çĴ": 2581,
      "æ®ĭ": 2582,
      "è¿Ĳè¡Į": 2583,
      "å¢ŀå¼º": 2584,
      "çľł": 2585,
      "çļĦåŁºç¡Ģ": 2586,
      "åĨľæĿĳ": 2587,
      "åĪ©äºİ": 2588,
      "Ġ)": 2589,
      "æķ´ä½ĵ": 2590,
      "çļĦä¸»": 2591,
      "éĿ¢å¯¹": 2592,
      "æĭį": 2593,
      "æĩĤ": 2594,
      "Ġof": 2595,
      "æĿ¥æºĲ": 2596,
      "ä»ģ": 2597,
      "ol": 2598,
      "è§Ħå¾ĭ": 2599,
      "çļĦä½ľçĶ¨": 2600,
      "ä¸ĭæĿ¥": 2601,
      "é¢ľ": 2602,
      "å¤ļå°ĳ": 2603,
      "æĮĳ": 2604,
      "èĭ±è¯Ń": 2605,
      "éĽ·": 2606,
      "å°±åı¯ä»¥": 2607,
      "å£ģ": 2608,
      "ä¸ŃåĽ½çļĦ": 2609,
      "åı¤ä»£": 2610,
      "æ´ŀ": 2611,
      "ç±»åŀĭ": 2612,
      "åħįçĸ«": 2613,
      "è§ĤçĤ¹": 2614,
      "çļĦå°ı": 2615,
      "åħ¬åħ±": 2616,
      "é¥®é£Ł": 2617,
      "èĥ½æºĲ": 2618,
      "éĽĨä¸Ń": 2619,
      "ä¸ĢåĪĩ": 2620,
      "çĮª": 2621,
      "å¿«éĢŁ": 2622,
      "åį«çĶŁ": 2623,
      "åĽ½çļĦ": 2624,
      "çĶŁç´ł": 2625,
      "æ¾": 2626,
      "åħĪçĶŁ": 2627,
      "ç§Ł": 2628,
      "æµª": 2629,
      "åķĨåĵģ": 2630,
      "åħ¨éĥ¨": 2631,
      "ä¸¤ç§į": 2632,
      "é¼»": 2633,
      "éĻ·": 2634,
      "è¯ļ": 2635,
      "å«": 2636,
      "000": 2637,
      "ä¸Ģå®ļçļĦ": 2638,
      "ç³»åĪĹ": 2639,
      "èĤ¡ç¥¨": 2640,
      "äººåı£": 2641,
      "éĽª": 2642,
      "æŃ£åľ¨": 2643,
      "è´Łè´£": 2644,
      "èĢĹ": 2645,
      "èļ": 2646,
      "å¿½": 2647,
      "åįĪ": 2648,
      "åį³ä½¿": 2649,
      "Ġä»İ": 2650,
      "çĸ¼": 2651,
      "éĿ©åĳ½": 2652,
      "æĽ°": 2653,
      "åĨħçļĦ": 2654,
      "æ¢ģ": 2655,
      "å¼ºè°ĥ": 2656,
      "æĸĩåŃĹ": 2657,
      "åĪºæ¿Ģ": 2658,
      "è´«": 2659,
      "ä¼łæĴŃ": 2660,
      "ä¼¯": 2661,
      "èµµ": 2662,
      "æĿĥåĪ©": 2663,
      "æĶ¹åĸĦ": 2664,
      "è¯Ńæĸĩ": 2665,
      "æ¸¯": 2666,
      "ec": 2667,
      "é¤Ĳ": 2668,
      "çļĦæĸ¹å¼ı": 2669,
      "å®ĮåĸĦ": 2670,
      "çĪ¸": 2671,
      "ä¸įå°ĳ": 2672,
      "æĭ¥æľī": 2673,
      "åĨħéĥ¨": 2674,
      "åĢ¾": 2675,
      "èĤ¿çĺ¤": 2676,
      "æİ¨åĬ¨": 2677,
      "Ġ7": 2678,
      "æ¸¸æĪı": 2679,
      "åģļåĪ°": 2680,
      "åĳĺå·¥": 2681,
      "199": 2682,
      "å³°": 2683,
      "é¥Ń": 2684,
      "æĬ½": 2685,
      "å¤ļç§į": 2686,
      "çī¹åĪ«æĺ¯": 2687,
      "ä¹ĥ": 2688,
      "æ£Ģæµĭ": 2689,
      "çī¹èī²": 2690,
      "çļĨ": 2691,
      "æģ¢": 2692,
      "é¥°": 2693,
      "æķĪçİĩ": 2694,
      "æĦĪ": 2695,
      "æĻºæħ§": 2696,
      "è®¾ç½®": 2697,
      "äºĮåįģ": 2698,
      "æ³¡": 2699,
      "æ²¿": 2700,
      "æ½®": 2701,
      "åĩłä¹İ": 2702,
      "è£ģ": 2703,
      "çĽ¸åºĶ": 2704,
      "æ¯Ķä¾ĭ": 2705,
      "å¯¿": 2706,
      "éĽħ": 2707,
      "æĬĵ": 2708,
      "éĻĲåĪ¶": 2709,
      "ad": 2710,
      "éĩıçļĦ": 2711,
      "éļ¾ä»¥": 2712,
      "æĮĩæłĩ": 2713,
      "å°ıåŃ¦": 2714,
      "æŃ¤å¤ĸ": 2715,
      "åıĳèĤ²": 2716,
      "å¹¿æ³Ľ": 2717,
      "ç½ļ": 2718,
      "åĹ": 2719,
      "åĩ¡": 2720,
      "åĲĮæł·": 2721,
      "æĺ¯ä»Ģä¹Ī": 2722,
      "çĽ¸äºĴ": 2723,
      "æģĲ": 2724,
      "éģĵå¾·": 2725,
      "ä½¿å¾Ĺ": 2726,
      "åĳ¼åĲ¸": 2727,
      "ä¸ĢçĤ¹": 2728,
      "å®ĩ": 2729,
      "éĢĤåĲĪ": 2730,
      "æĺ¯ä¸į": 2731,
      "åŃĲçļĦ": 2732,
      "åºĨ": 2733,
      "éĢĤåºĶ": 2734,
      "æĳ©": 2735,
      "å¥¥": 2736,
      "å°¤åħ¶æĺ¯": 2737,
      "è¡¨æĺİ": 2738,
      "åĪĨéĴŁ": 2739,
      "åĨľæ°ĳ": 2740,
      "il": 2741,
      "æĥĬ": 2742,
      "åĩĿ": 2743,
      "åĩºçīĪ": 2744,
      "ä¸ªæľĪ": 2745,
      "è·ĳ": 2746,
      "èĳĹåĲį": 2747,
      "çĪĨ": 2748,
      "ä¼Ł": 2749,
      "æĮĩåĩº": 2750,
      "æĦıè§ģ": 2751,
      "åĳĬè¯ī": 2752,
      "ä¼¦": 2753,
      "æ´ģ": 2754,
      "è¥¿æĸ¹": 2755,
      "å¢¨": 2756,
      "æļĹ": 2757,
      "æķ¬": 2758,
      "æŃ»äº¡": 2759,
      "Ġè¿Ļ": 2760,
      "ç¬ĳ": 2761,
      "åŁ¹è®Ń": 2762,
      "è®¨è®º": 2763,
      "çļ®èĤ¤": 2764,
      "åĵĪ": 2765,
      "åĨĮ": 2766,
      "åĮĸåŃ¦": 2767,
      "è¿ĺè¦ģ": 2768,
      "ç»ıåİĨ": 2769,
      "äºĭä»¶": 2770,
      "åĨł": 2771,
      "æĹħæ¸¸": 2772,
      "å¹´é¾Ħ": 2773,
      "ç²Ĵ": 2774,
      "æĻĭ": 2775,
      "èī¯å¥½çļĦ": 2776,
      "å¤§å¤ļæķ°": 2777,
      "èĥ¶": 2778,
      "æ»ĳ": 2779,
      "Ġç¬¬": 2780,
      "æģ¢å¤į": 2781,
      "ap": 2782,
      "åĮ»åŃ¦": 2783,
      "åĵģçīĮ": 2784,
      "åĨ°": 2785,
      "æĦıæĢĿ": 2786,
      "èģĶåĲĪ": 2787,
      "\"(": 2788,
      "æ¨ª": 2789,
      "ä¾Ŀæį®": 2790,
      "èĩªä¸»": 2791,
      "åģļå¥½": 2792,
      "é¡µ": 2793,
      "åĮ»çĶŁ": 2794,
      "70": 2795,
      "æĢ§åĴĮ": 2796,
      "ç©ºæ°Ķ": 2797,
      "Ġ201": 2798,
      "æ³¥": 2799,
      "å¥ı": 2800,
      "è®°å½ķ": 2801,
      "è¯¦": 2802,
      "åŁºåĽł": 2803,
      "æĪĲç«ĭ": 2804,
      "è½¯ä»¶": 2805,
      "è¡Ĺ": 2806,
      "åħ¼": 2807,
      "èĥ¸": 2808,
      "ä½ľä¸ļ": 2809,
      "Ġå¦Ĥæŀľ": 2810,
      "åº¦çļĦ": 2811,
      "éĻ¶": 2812,
      "æĥħæĦŁ": 2813,
      "ä¹ĺ": 2814,
      "èĩªåĬ¨": 2815,
      "æ±¤": 2816,
      "å¹³è¡¡": 2817,
      "åı¯èĥ½ä¼ļ": 2818,
      "çŀ": 2819,
      "å§Ķåĳĺ": 2820,
      "è¯º": 2821,
      "im": 2822,
      "æľīæīĢ": 2823,
      "çļĦæĸ°": 2824,
      "çº¹": 2825,
      "çľŁå®ŀ": 2826,
      "å©´": 2827,
      "å®ŀéĻħä¸Ĭ": 2828,
      "æĹ©æľŁ": 2829,
      "ä¸ĢæĹ¦": 2830,
      "è¿Ļä¹Ī": 2831,
      "éĹ®é¢ĺçļĦ": 2832,
      "çī©çļĦ": 2833,
      "æĹ¶çļĦ": 2834,
      "æ·¡": 2835,
      "çĽ¸åĲĮ": 2836,
      "æ³Į": 2837,
      "åŁºäºİ": 2838,
      "çĬ¶åĨµ": 2839,
      "çĲĨå¿µ": 2840,
      "æŀĦæĪĲ": 2841,
      "ç»Łè®¡": 2842,
      "æķ¢": 2843,
      "éŃı": 2844,
      "ä¸»åĬ¨": 2845,
      "æģ©": 2846,
      "æĶ¯ä»ĺ": 2847,
      "åıįæĺł": 2848,
      "æİ¥è§¦": 2849,
      "èĲ¨": 2850,
      "æ¯ķä¸ļ": 2851,
      "èĵĿ": 2852,
      "ä½ĵéªĮ": 2853,
      "äººå·¥": 2854,
      "èħ°": 2855,
      "å¤ªéĺ³": 2856,
      "æĹ¥å¸¸": 2857,
      "åĪ¶å®ļ": 2858,
      "ä¸įèī¯": 2859,
      "æľīéĻĲ": 2860,
      "æİ¢ç´¢": 2861,
      "24": 2862,
      "æĶ¶çĽĬ": 2863,
      "æķĮ": 2864,
      "éĩĮçļĦ": 2865,
      "äºĨä¸Ģä¸ª": 2866,
      "è´Ńä¹°": 2867,
      "è®°è½½": 2868,
      "èµĸ": 2869,
      "åĲ¸æĶ¶": 2870,
      "çĶĺ": 2871,
      "çļĦåİŁåĽł": 2872,
      "ç±į": 2873,
      "æ¸ħæ¥ļ": 2874,
      "å½¢è±¡": 2875,
      "ä¸»è¦ģæĺ¯": 2876,
      "ä»įçĦ¶": 2877,
      "åıĬåħ¶": 2878,
      "ç¢³": 2879,
      "æī¿æĭħ": 2880,
      "ä¼ģä¸ļçļĦ": 2881,
      "90": 2882,
      "è¡ĮåĬ¨": 2883,
      "è¡Ģåİĭ": 2884,
      "ç²®": 2885,
      "è§ĦåĪĻ": 2886,
      "éģŃ": 2887,
      "éĽķ": 2888,
      "åĵ²åŃ¦": 2889,
      "éŁ©": 2890,
      "çļĦçłĶç©¶": 2891,
      "åĪ¶ä½ľ": 2892,
      "èĥĢ": 2893,
      "ä¸¥æł¼": 2894,
      "éļĨ": 2895,
      "éĺ²æŃ¢": 2896,
      "ä¼ĺç§Ģ": 2897,
      "ä¸¹": 2898,
      "å·®å¼Ĥ": 2899,
      "çĹħäºº": 2900,
      "ä¸Ĭåįĩ": 2901,
      "å¾Īå¤§": 2902,
      "è¡ĮçļĦ": 2903,
      "å¤©ä¸ĭ": 2904,
      "åı¯è§ģ": 2905,
      "è´¡": 2906,
      "æĢ»ç»ĵ": 2907,
      "æŃ£æĺ¯": 2908,
      "èİ«": 2909,
      "æ¶īåıĬ": 2910,
      "è§Ĥå¿µ": 2911,
      "æĤ²": 2912,
      "æĻ®éģį": 2913,
      "èĸĦ": 2914,
      "éĵľ": 2915,
      "æľĢé«ĺ": 2916,
      "åľ°äº§": 2917,
      "åªĴä½ĵ": 2918,
      "æ¸©åº¦": 2919,
      "è¿½æ±Ĥ": 2920,
      "çī©çĲĨ": 2921,
      "èĢĮä¸į": 2922,
      "æ³½": 2923,
      "è®©åŃ©åŃĲ": 2924,
      "çļĦåľ°æĸ¹": 2925,
      "æ¬§æ´²": 2926,
      "é¸Ł": 2927,
      "è¯´çļĦ": 2928,
      "æ·±åħ¥": 2929,
      "æİ¨è¿Ľ": 2930,
      "ä»¿": 2931,
      "æľīä¸Ģä¸ª": 2932,
      "åħ·å¤ĩ": 2933,
      "åį±éĻ©": 2934,
      "å½»": 2935,
      "æľºåĻ¨": 2936,
      "åį±å®³": 2937,
      "åľĪ": 2938,
      "èķ": 2939,
      "ĠçļĦ": 2940,
      "åºĹ": 2941,
      "ä¸ĭéĿ¢": 2942,
      "è¿·": 2943,
      "å¤§éĥ¨åĪĨ": 2944,
      "å·¥èīº": 2945,
      "ä¸»ä»»": 2946,
      "ä¼Ĭ": 2947,
      "å¢ĵ": 2948,
      "çĽĳç®¡": 2949,
      "éĻµ": 2950,
      "é¼ĵåĬ±": 2951,
      "èµŀ": 2952,
      "ä¹Ļ": 2953,
      "ç´łè´¨": 2954,
      "ä¸ŃåĮ»": 2955,
      "æŁ±": 2956,
      "è·³": 2957,
      "æľºåħ³": 2958,
      "ĠæĪĳ": 2959,
      "éļľç¢į": 2960,
      "èª": 2961,
      "ä¸Ģå¹´": 2962,
      "åŃĲå®«": 2963,
      "ç´«": 2964,
      "æľīçĿĢ": 2965,
      "éĩįå¤§": 2966,
      "è´¸æĺĵ": 2967,
      "ĠæĪĳä»¬": 2968,
      "ip": 2969,
      "ä¿Ħ": 2970,
      "çĽ¾": 2971,
      "é¡¿": 2972,
      "è´¹çĶ¨": 2973,
      "æ±Ĺ": 2974,
      "åħ¬åħĥ": 2975,
      "è´Ŀ": 2976,
      "éĩįæĸ°": 2977,
      "åĪ«äºº": 2978,
      "iv": 2979,
      "å¹¶ä¸įæĺ¯": 2980,
      "æ¯ıå¹´": 2981,
      "è´·æ¬¾": 2982,
      "è®¾æĸ½": 2983,
      "éĥģ": 2984,
      "å¥ĭ": 2985,
      "æľĢå¤§çļĦ": 2986,
      "æŀĿ": 2987,
      "23": 2988,
      "å¸Ń": 2989,
      "è®°å¿Ĩ": 2990,
      "çĬ¯ç½ª": 2991,
      "å°¾": 2992,
      "çļĦä¸Ģç§į": 2993,
      "è´¦": 2994,
      "è¦": 2995,
      "ig": 2996,
      "æľĢå¤§": 2997,
      "æĮ¯": 2998,
      "Ġand": 2999,
      "è¯Ħä¼°": 3000,
      "åıĳçĹħ": 3001,
      "åŃ¦æľ¯": 3002,
      "çĽ¸ä¿¡": 3003,
      "æļĸ": 3004,
      "è®¡ç®Ĺæľº": 3005,
      "å¦Ļ": 3006,
      "æįŁå¤±": 3007,
      "åĪĨå¸ĥ": 3008,
      "èĥĮæĻ¯": 3009,
      "è¯»ä¹¦": 3010,
      "è·¨": 3011,
      "çº¤": 3012,
      "ä¼ı": 3013,
      "åĩĨç¡®": 3014,
      "æĽ´å¤ļçļĦ": 3015,
      "....": 3016,
      "å¿ĺ": 3017,
      "è¡¥åħħ": 3018,
      "å£®": 3019,
      "çŃĸçķ¥": 3020,
      "é»ĺ": 3021,
      "ä¿¡åı·": 3022,
      "åıĮæĸ¹": 3023,
      "æ¡£": 3024,
      "å´ĩ": 3025,
      "å½ĵåīį": 3026,
      "ç£¨": 3027,
      "åĪĽä½ľ": 3028,
      "æµ®": 3029,
      "ä¹ĭå¤ĸ": 3030,
      "è¿ħéĢŁ": 3031,
      "åĳ¨æľŁ": 3032,
      "Ġst": 3033,
      "æ´Ľ": 3034,
      "ot": 3035,
      "ä¹ĭä¸Ń": 3036,
      "æ°ĳéĹ´": 3037,
      "æĬķåħ¥": 3038,
      "è¦Ĩ": 3039,
      "éĢĤå½ĵ": 3040,
      "ç»´çĶŁç´ł": 3041,
      "ç¾Ĭ": 3042,
      "éŀ": 3043,
      "æĪĲæŀľ": 3044,
      "ç»ķ": 3045,
      "æľĢå¥½": 3046,
      "æ·»": 3047,
      "æĢİæł·": 3048,
      "çŃĶæ¡Ī": 3049,
      "è¾Ľ": 3050,
      "åĪ°çļĦ": 3051,
      "åıĳå¸ĥ": 3052,
      "ch": 3053,
      "æĭľ": 3054,
      "æĢģåº¦": 3055,
      "çĸı": 3056,
      "çĽ¸æ¯Ķ": 3057,
      "æĬĢèĥ½": 3058,
      "èĪį": 3059,
      "å¾Īéļ¾": 3060,
      "ä¸Ĭè¿°": 3061,
      "çĽŁ": 3062,
      "é©±": 3063,
      "çºł": 3064,
      "æ¢°": 3065,
      "çıį": 3066,
      "é©¾": 3067,
      "å°±ä¸ļ": 3068,
      "æľĹ": 3069,
      "æĦŁåıĹ": 3070,
      "å¾ªçİ¯": 3071,
      "èħĲ": 3072,
      "çĸ¼çĹĽ": 3073,
      "è¯ĬæĸŃ": 3074,
      "çŁĽ": 3075,
      "åĬ¨ä½ľ": 3076,
      "éģµ": 3077,
      "æĬķèµĦèĢħ": 3078,
      "æ¢ħ": 3079,
      "åĽ¢éĺŁ": 3080,
      "ä¼¸": 3081,
      "çĶŁåŃĺ": 3082,
      "æĦıåĳ³": 3083,
      "çĲĨæĥ³": 3084,
      "ä¸ģ": 3085,
      "å°½ç®¡": 3086,
      "å®īæİĴ": 3087,
      "ab": 3088,
      "éº¦": 3089,
      "äººåľ¨": 3090,
      "å°Ŀ": 3091,
      "åĪĢ": 3092,
      "ç²Ĺ": 3093,
      "åıĤèĢĥ": 3094,
      "çºµ": 3095,
      "èį·": 3096,
      "è®©åŃ¦çĶŁ": 3097,
      "ä»ĵ": 3098,
      "åĽĬ": 3099,
      "èµĶ": 3100,
      "Ġ8": 3101,
      "è°Ĳ": 3102,
      "ä½įäºİ": 3103,
      "æ²ŁéĢļ": 3104,
      "è¿ĽæŃ¥": 3105,
      "æ£®": 3106,
      "è´¢äº§": 3107,
      "æ¶Ĥ": 3108,
      "æ´¥": 3109,
      "æĪĲçĨŁ": 3110,
      "éĿ¢ä¸´": 3111,
      "æĥħåĨµä¸ĭ": 3112,
      "åıĺå¾Ĺ": 3113,
      "åĭĩ": 3114,
      "åĬ¨åĬĽ": 3115,
      "21": 3116,
      "åŃ¦èĢħ": 3117,
      "æ°§åĮĸ": 3118,
      "ä»¥åīį": 3119,
      "åįģäºĮ": 3120,
      "ä»İäºĭ": 3121,
      "å¡«": 3122,
      "çļĦåŃ©åŃĲ": 3123,
      "éĢ»": 3124,
      "å½ĵåľ°": 3125,
      "åĩºåı£": 3126,
      "Ġä¸ŃåĽ½": 3127,
      "äºĭæĥħ": 3128,
      "åľ°çĲĥ": 3129,
      "å¼Ĥå¸¸": 3130,
      "è¯±": 3131,
      "äºĭä¸ļ": 3132,
      "æ¡Īä»¶": 3133,
      "éĤ¦": 3134,
      "ç±»ä¼¼": 3135,
      "è®¼": 3136,
      "æī¾åĪ°": 3137,
      "ä¼ļæľī": 3138,
      "æ³ī": 3139,
      "åĮºåĪ«": 3140,
      "æĿĨ": 3141,
      "æĽ¾ç»ı": 3142,
      "å¦»": 3143,
      "ä½ľæĸĩ": 3144,
      "ç»ĥä¹ł": 3145,
      "åĿ¦": 3146,
      "èĪĴ": 3147,
      "èĲ¥éĶĢ": 3148,
      "çļĦå·¥ä½ľ": 3149,
      "åºĻ": 3150,
      "åį±æľº": 3151,
      "å¾·åĽ½": 3152,
      "å¾Ĵ": 3153,
      "èĤª": 3154,
      "Ġto": 3155,
      "åĪĨæ³Į": 3156,
      "æĮĤ": 3157,
      ");": 3158,
      "è·Ŀç¦»": 3159,
      "è¹": 3160,
      "å°±è¦ģ": 3161,
      "æģ°": 3162,
      "ç«¹": 3163,
      "èĦĤèĤª": 3164,
      "ç»ĵæĿŁ": 3165,
      "em": 3166,
      "æĶ¾åľ¨": 3167,
      "æĭĵ": 3168,
      "æ¨¡åŀĭ": 3169,
      "åŃ¦å®¶": 3170,
      "ä¸»ä½ĵ": 3171,
      "åĵ¥": 3172,
      "ç²ĺ": 3173,
      "æĢ§èĥ½": 3174,
      "èµĭ": 3175,
      "æĸ½å·¥": 3176,
      "æ³°": 3177,
      "å®ļä¹ī": 3178,
      "çİ¯èĬĤ": 3179,
      "å¿ł": 3180,
      "è¡¨éĿ¢": 3181,
      "çŁĽçĽ¾": 3182,
      "å¥ī": 3183,
      "äººçī©": 3184,
      "åĶ±": 3185,
      "æ¶µ": 3186,
      "æ¤İ": 3187,
      "çļĦåŁºæľ¬": 3188,
      "çĶŁæ´»ä¸Ń": 3189,
      "çĵ·": 3190,
      "ç§»åĬ¨": 3191,
      "è¡Ģæ¶²": 3192,
      "è´¢æĶ¿": 3193,
      "èĤ¯å®ļ": 3194,
      "åĬłå·¥": 3195,
      "åĪĨç±»": 3196,
      "ä¼ļè®®": 3197,
      "ation": 3198,
      "ĠåĽĽ": 3199,
      "æ²»çĲĨ": 3200,
      "åħģ": 3201,
      "åĢ¼å¾Ĺ": 3202,
      "çıł": 3203,
      "æīĭæľº": 3204,
      "åįıè®®": 3205,
      "æŁĲäºĽ": 3206,
      "é¢Ĺ": 3207,
      "å±ħæ°ĳ": 3208,
      "å®Įæķ´": 3209,
      "è°ĭ": 3210,
      "åĲĦä¸ª": 3211,
      "å¾Ĳ": 3212,
      "æ¿Ģç´ł": 3213,
      "å½¢æĢģ": 3214,
      "èĢĮä¸įæĺ¯": 3215,
      "çħ¤": 3216,
      "éĢ»è¾ĳ": 3217,
      "ç»ĻäºĪ": 3218,
      "æ¼«": 3219,
      "è¿ŀæİ¥": 3220,
      "æĳĨ": 3221,
      "çļĦä¸į": 3222,
      "Ġv": 3223,
      "éĢĨ": 3224,
      "æīĢæľīçļĦ": 3225,
      "çģ°": 3226,
      "æĤŁ": 3227,
      "æĺ¯æľī": 3228,
      "åĨĴ": 3229,
      "çªĹ": 3230,
      "è¯īè®¼": 3231,
      "?\"": 3232,
      "è¿Ļå°±æĺ¯": 3233,
      "æĪ¿å±ĭ": 3234,
      "å²¸": 3235,
      "ä¹Łå°±": 3236,
      "å¿ħçĦ¶": 3237,
      "æ¹¾": 3238,
      "çļĦèĥ½åĬĽ": 3239,
      "éģĵè·¯": 3240,
      "æī°": 3241,
      "åĭ¤": 3242,
      "ä¹īåĬ¡": 3243,
      "èįĲ": 3244,
      "æĤī": 3245,
      "å®ı": 3246,
      "çļĦè¿ĩç¨ĭ": 3247,
      "éĢĥ": 3248,
      "èĻİ": 3249,
      "æĹĭ": 3250,
      "æļĤ": 3251,
      "çĶ±æŃ¤": 3252,
      "åĴ¨": 3253,
      "æ³ķçļĦ": 3254,
      "å¹¶æ²¡æľī": 3255,
      "åĩŃ": 3256,
      "è´¯": 3257,
      "æŃ¤æĹ¶": 3258,
      "èĩ³å°ĳ": 3259,
      "è°±": 3260,
      "æº¶": 3261,
      "æĦŁåĪ°": 3262,
      "çĻ¾å§ĵ": 3263,
      "éĢĲæŃ¥": 3264,
      "æī©å¤§": 3265,
      "æĺ¯æľĢ": 3266,
      "è¾¨": 3267,
      "å±Ĥæ¬¡": 3268,
      "ä¾ĽåºĶ": 3269,
      "os": 3270,
      "ç»´æĬ¤": 3271,
      "æĪ¿åľ°äº§": 3272,
      "åķĬ": 3273,
      "çł´åĿı": 3274,
      "ä»¥ä¸º": 3275,
      "Ġæľ¬": 3276,
      "é«ĺåº¦": 3277,
      "çŃ¹": 3278,
      "åĦĴ": 3279,
      "æĿľ": 3280,
      "æĥł": 3281,
      "å¼ķåıĳ": 3282,
      "åħ³èĬĤ": 3283,
      "è½¬ç§»": 3284,
      "ç»¿èī²": 3285,
      "éĴĻ": 3286,
      "çĵ¦": 3287,
      "è®¤çľŁ": 3288,
      "æ®¿": 3289,
      "éĢĴ": 3290,
      "å®£ä¼ł": 3291,
      "æĭĶ": 3292,
      "å²Ĺ": 3293,
      "æĥ³è±¡": 3294,
      "è¯ķéªĮ": 3295,
      "è¾Ĩ": 3296,
      "å°±èĥ½": 3297,
      "å²©": 3298,
      "éĺµ": 3299,
      "ãĢĭ(": 3300,
      "èªī": 3301,
      "å°º": 3302,
      "åĨĻä½ľ": 3303,
      "åĴ¨è¯¢": 3304,
      "çļĦåİĨåı²": 3305,
      "35": 3306,
      "ä»Ĭå¹´": 3307,
      "å°½éĩı": 3308,
      "è§Ī": 3309,
      "çļĦå¿ĥ": 3310,
      "æľīæĹ¶": 3311,
      "æī£": 3312,
      "çļĦåĨħå®¹": 3313,
      "æĺ¯å¯¹": 3314,
      "èħ¿": 3315,
      "Ġth": 3316,
      "çĽĨ": 3317,
      "å°ĸ": 3318,
      "çĥ¦": 3319,
      "åĪ©çİĩ": 3320,
      "åĪĨäº«": 3321,
      "æµħ": 3322,
      "ç³ĸå°¿": 3323,
      "çªģçł´": 3324,
      "åĲ«æľī": 3325,
      "æıĴ": 3326,
      "22": 3327,
      "æĦıåĳ³çĿĢ": 3328,
      "è¿Ľè¡ĮäºĨ": 3329,
      "ä¸Ģä½į": 3330,
      "éĥ½ä¸į": 3331,
      "å¿§": 3332,
      "åĨĽäºĭ": 3333,
      "ä¾¯": 3334,
      "åĭĴ": 3335,
      "å®¢è§Ĥ": 3336,
      "ç¥Ń": 3337,
      "è¿ŀç»Ń": 3338,
      "ä»ĸäºº": 3339,
      "åŀĥ": 3340,
      "å°ĳå¹´": 3341,
      "åľ¾": 3342,
      "é£İæł¼": 3343,
      "è¾©": 3344,
      "ç¼´": 3345,
      "å°ıçļĦ": 3346,
      "åŀĥåľ¾": 3347,
      "æľīåĪ©äºİ": 3348,
      "å½ĵäºĭ": 3349,
      "æĽ´æĺ¯": 3350,
      "ow": 3351,
      "åĢºåĬ¡": 3352,
      "çļĦäºĭæĥħ": 3353,
      "åĲĲ": 3354,
      "æ¯įäº²": 3355,
      "æĬ±": 3356,
      "åľ¨è¿Ļ": 3357,
      "èĥ½éĩı": 3358,
      "ä¸Ģèĩ´": 3359,
      "åħ¶å®ĥ": 3360,
      "åĪĬ": 3361,
      "åĪĨåŃĲ": 3362,
      "çĶµè§Ĩ": 3363,
      "çļĦåīį": 3364,
      "ä»²": 3365,
      "æ¶ĪåĮĸ": 3366,
      "åĿ¡": 3367,
      "ä½ĵèĤ²": 3368,
      "åıĺæĪĲ": 3369,
      "å»·": 3370,
      "æ¼ı": 3371,
      "çªģåĩº": 3372,
      "éĽĨåĽ¢": 3373,
      "ä¸įåĨį": 3374,
      "é¢ľèī²": 3375,
      "å¦Ĥä¸ĭ": 3376,
      "æĪ´": 3377,
      "æľ¬è´¨": 3378,
      "æŃ£å¼ı": 3379,
      "å¤º": 3380,
      "æĺ¯çĶ±": 3381,
      "çĲ´": 3382,
      "åį°åº¦": 3383,
      "æħ¢æĢ§": 3384,
      "æĴĳ": 3385,
      "è®¤çŁ¥": 3386,
      "æĬĳåĪ¶": 3387,
      "åĲ¨": 3388,
      "åı¯æĺ¯": 3389,
      "æįŁå®³": 3390,
      "çļĦæĥħåĨµä¸ĭ": 3391,
      "æĺĮ": 3392,
      "æ³¨éĩį": 3393,
      "é©¶": 3394,
      "æĹĹ": 3395,
      "åĩī": 3396,
      "åĪ°åºķ": 3397,
      "èŀįèµĦ": 3398,
      "æĪĴ": 3399,
      "ç³»ç»ŁçļĦ": 3400,
      "åĩºæĿ¥çļĦ": 3401,
      "è¯ģæį®": 3402,
      "å¹´åīį": 3403,
      "åī²": 3404,
      "åĳĪçİ°": 3405,
      "æ´ª": 3406,
      "çļĦåħ³ç³»": 3407,
      "å¾¡": 3408,
      "od": 3409,
      "æµĭè¯ķ": 3410,
      "ä»°": 3411,
      "ä¹Łè¦ģ": 3412,
      "Ġå¯¹": 3413,
      "ç¢ĳ": 3414,
      "ç³ĸå°¿çĹħ": 3415,
      "åģ¶": 3416,
      "--": 3417,
      "åįļçī©": 3418,
      "æīĢåľ¨": 3419,
      "åŃ¦çļĦ": 3420,
      "åŀĭçļĦ": 3421,
      "æĸĳ": 3422,
      "éĶ»": 3423,
      "è²": 3424,
      "å±ķç¤º": 3425,
      "æĪĲåĪĨ": 3426,
      "å±Ĭ": 3427,
      "åĪ·": 3428,
      "å®ŀè¡Į": 3429,
      "èĿ": 3430,
      "è¿Ķ": 3431,
      "ä¹Į": 3432,
      "äººçĶŁ": 3433,
      "æ¯ıä¸Ģä¸ª": 3434,
      "åĴĮè°Ĳ": 3435,
      "æķĻèĤ²çļĦ": 3436,
      "è°ĥèĬĤ": 3437,
      "åľ¨æŃ¤": 3438,
      "æ¶Īè´¹èĢħ": 3439,
      "å®¶çļĦ": 3440,
      "ç¦ħ": 3441,
      "åİŁçĲĨ": 3442,
      "æľīæķĪçļĦ": 3443,
      "åĸ·": 3444,
      "å°Ĭéĩį": 3445,
      "ç£ģ": 3446,
      "åĪ©æ¶¦": 3447,
      "åħ¶æ¬¡": 3448,
      "éĥ¨ä½į": 3449,
      "å¹¿åĳĬ": 3450,
      "æµģåĬ¨": 3451,
      "åĨįæ¬¡": 3452,
      "æľīæľº": 3453,
      "é»Ħéĩĳ": 3454,
      "op": 3455,
      "åŀĤ": 3456,
      "éĤ£ä¸ª": 3457,
      "èĳ¡": 3458,
      "å®Ļ": 3459,
      "åĬłåħ¥": 3460,
      "æĢ§è´¨": 3461,
      "ä¼ļè®¡": 3462,
      "åıĳè¡¨": 3463,
      "æģĴ": 3464,
      "å®īè£ħ": 3465,
      "æ¸ł": 3466,
      "åı¥è¯Ŀ": 3467,
      "ç©·": 3468,
      "Ġ9": 3469,
      "ä¸ĩåħĥ": 3470,
      "éĩĮéĿ¢": 3471,
      "äºĭæķħ": 3472,
      "Ġ20": 3473,
      "éĽĨä½ĵ": 3474,
      "æĬĬæı¡": 3475,
      "å¹´äºº": 3476,
      "å£¤": 3477,
      "æľºæ¢°": 3478,
      "æ»ĭ": 3479,
      "å§Ķåĳĺä¼ļ": 3480,
      "ç¨Ģ": 3481,
      "æĪĲå°±": 3482,
      "è·ĥ": 3483,
      "ä¼Ļ": 3484,
      "æĸ°éĹ»": 3485,
      "åĳ¨åĽ´": 3486,
      "åŃ©åŃĲä»¬": 3487,
      "æ¸¡": 3488,
      "åĬłä¸Ĭ": 3489,
      "è®°èĢħ": 3490,
      "Ġ10": 3491,
      "ä½ĽæķĻ": 3492,
      "è®¯": 3493,
      "çĽĳçĿ£": 3494,
      "éĥ½è¦ģ": 3495,
      "èĢĥçĶŁ": 3496,
      "å¸¸å¸¸": 3497,
      "æĪª": 3498,
      "è¾ŀ": 3499,
      "å½¼": 3500,
      "ç¤¾ä¼ļä¸»ä¹ī": 3501,
      "ç®±": 3502,
      "çķħ": 3503,
      "éĥ½åľ¨": 3504,
      "ä¸Ńæľī": 3505,
      "ä¸Ģæĺ¯": 3506,
      "ä¸īå¹´": 3507,
      "èĦ¾": 3508,
      "ä¼¤å®³": 3509,
      "åı¬": 3510,
      ",ãĢĬ": 3511,
      "æ¯ģ": 3512,
      "Ġå½ĵ": 3513,
      "ag": 3514,
      "åĽºå®ļ": 3515,
      "æĽ´å¥½": 3516,
      "åĩºçİ°äºĨ": 3517,
      "æķĻæĿĲ": 3518,
      "å±¥": 3519,
      "ç½ĳç«Ļ": 3520,
      "åŃ¤": 3521,
      "å¹´è½»": 3522,
      "çĻ»è®°": 3523,
      "çļĦçĶŁæ´»": 3524,
      "çļĦåĲĮæĹ¶": 3525,
      "æ§": 3526,
      "ce": 3527,
      "å®ħ": 3528,
      "è¿Ł": 3529,
      "åı¯èĥ½æĺ¯": 3530,
      "çļĦåŃ¦ä¹ł": 3531,
      "çĿ¡çľł": 3532,
      "å°±åĥı": 3533,
      "æµģç¨ĭ": 3534,
      "è¿Ĳè¾ĵ": 3535,
      "èĲĦ": 3536,
      "ä½łä»¬": 3537,
      "å¹¶éĿŀ": 3538,
      "æĪĲåĳĺ": 3539,
      "å®ĩå®Ļ": 3540,
      "å¤ļä¸ª": 3541,
      "ä»¤äºº": 3542,
      "ä¸ĵéĹ¨": 3543,
      "çļĦæķĻèĤ²": 3544,
      "éģĩåĪ°": 3545,
      "æĮĳæĪĺ": 3546,
      "æĸ¹ä¾¿": 3547,
      "åĲ«éĩı": 3548,
      "äºķ": 3549,
      "æİ¨èįĲ": 3550,
      "èĳ¡èĲĦ": 3551,
      "å¿«ä¹Ĳ": 3552,
      "å¾Īå¤ļäºº": 3553,
      "æĮĸ": 3554,
      "è½¨": 3555,
      "åĲĦåľ°": 3556,
      "æĢ»æĺ¯": 3557,
      "è´¡çĮ®": 3558,
      "ä¹¦æ³ķ": 3559,
      "ä¸»é¢ĺ": 3560,
      "å¼ºçļĦ": 3561,
      "åħĥç´ł": 3562,
      "ä¸Ĭæ¶¨": 3563,
      "åĨ³çŃĸ": 3564,
      "æ¬£": 3565,
      "æīİ": 3566,
      "è®ºæĸĩ": 3567,
      "å·¥èµĦ": 3568,
      "ct": 3569,
      "æĹģ": 3570,
      "å°±æľī": 3571,
      "ç»Ŀå¯¹": 3572,
      "28": 3573,
      "å¤±åİ»": 3574,
      "æłĩå¿Ĺ": 3575,
      "ä»Ļ": 3576,
      "èĤĮèĤī": 3577,
      "åľ¨ä¸ŃåĽ½": 3578,
      "if": 3579,
      "åĲ¸å¼ķ": 3580,
      "çĿĽ": 3581,
      "æĥ³è¦ģ": 3582,
      "åĪĨéħį": 3583,
      "åħ¬ä¼Ĺ": 3584,
      "åįģå¹´": 3585,
      "ç»´æĮģ": 3586,
      "æľŁçļĦ": 3587,
      "èĩ³ä»Ĭ": 3588,
      "ç»Łæ²»": 3589,
      "åħ¬åı¸çļĦ": 3590,
      "äº§çĶŁçļĦ": 3591,
      "åıĳè¾¾": 3592,
      "ç¾½": 3593,
      "th": 3594,
      "éĶ»çĤ¼": 3595,
      "ä¸Ĭå¸Ĥ": 3596,
      "çĭ¬çī¹": 3597,
      "Ġå¤§": 3598,
      "ä¼¼ä¹İ": 3599,
      "æııè¿°": 3600,
      "æĲŀ": 3601,
      "çº¤ç»´": 3602,
      "ä¸įå¥½": 3603,
      "åħĪè¿Ľ": 3604,
      "åĽ½å®¶çļĦ": 3605,
      "è¯´æ³ķ": 3606,
      "å§¿": 3607,
      "åĮħåĲ«": 3608,
      "çĪ¶äº²": 3609,
      "å°ıç»Ħ": 3610,
      "éĥĳ": 3611,
      "çĽĪ": 3612,
      "çĬ¹": 3613,
      "Ġç¬¬äºĮ": 3614,
      "ç¤¾åĮº": 3615,
      "198": 3616,
      "éħįåĲĪ": 3617,
      "æī¶": 3618,
      "åĬ¨æľº": 3619,
      "45": 3620,
      "ç¡®ä¿Ŀ": 3621,
      "å¦Ĥä»Ĭ": 3622,
      "å¿Į": 3623,
      "æ³ķåĽ½": 3624,
      "çĳŀ": 3625,
      "å©´åĦ¿": 3626,
      "å¤©çĦ¶": 3627,
      "éĨĩ": 3628,
      "ä¸įçŁ¥": 3629,
      "åľ°åĿĢ": 3630,
      "æĮĩæķ°": 3631,
      "åĩºè¡Ģ": 3632,
      "æİĺ": 3633,
      "åĽŀçŃĶ": 3634,
      "åĨĽéĺŁ": 3635,
      "å¤§éĩıçļĦ": 3636,
      "æ¡ĥ": 3637,
      "äº¿åħĥ": 3638,
      "èī²å½©": 3639,
      "æĺ¾èĳĹ": 3640,
      "ç¡®å®ŀ": 3641,
      "åĵģç§į": 3642,
      "ä¸įç®¡": 3643,
      "å±Ī": 3644,
      "æĺİçĻ½": 3645,
      "åį³åı¯": 3646,
      "åĲ¦åĪĻ": 3647,
      "è½¬åıĺ": 3648,
      "èī¾": 3649,
      "å¤§å°ı": 3650,
      "é«ĺæł¡": 3651,
      "æĸĩåĮĸçļĦ": 3652,
      "ç§¯ç´¯": 3653,
      "åī©": 3654,
      "çĵ¶": 3655,
      "æıĲä¾ĽäºĨ": 3656,
      "åŃĿ": 3657,
      "æŁĶ": 3658,
      "å¤±è´¥": 3659,
      "ç¾İæľ¯": 3660,
      "èŀįåĲĪ": 3661,
      "èµ¤": 3662,
      "æĿ¯": 3663,
      "é«ĺèĢĥ": 3664,
      "çĵľ": 3665,
      "çĶŁçĲĨ": 3666,
      "Ġæľī": 3667,
      "ä¹Łè®¸": 3668,
      "è®©äºº": 3669,
      "åıįå¤į": 3670,
      "é¢Ħæµĭ": 3671,
      "æĲŃ": 3672,
      "åı¯ä»¥è¯´": 3673,
      "åħħæ»¡": 3674,
      "è²Į": 3675,
      "å¤§èĦĳ": 3676,
      "åįıè°ĥ": 3677,
      "æµĻ": 3678,
      "åĽłèĢĮ": 3679,
      "çĤ¸": 3680,
      "åŃ¦ä¹łçļĦ": 3681,
      "èĤ¢": 3682,
      "å¹¸ç¦ı": 3683,
      "æĻ¶": 3684,
      "å°ĺ": 3685,
      "26": 3686,
      "åĪĻæĺ¯": 3687,
      "æĽ´ä¸º": 3688,
      "éĢĶå¾Ħ": 3689,
      "éĩĳå±ŀ": 3690,
      "çļĦä¸ľè¥¿": 3691,
      "å¾Īå¤§çļĦ": 3692,
      "ä¸ªä½ĵ": 3693,
      "ç¾¤ä¼Ĺ": 3694,
      "è¯ģåĪ¸": 3695,
      "è¿ĺä¼ļ": 3696,
      "åįļå£«": 3697,
      "èº«ä»½": 3698,
      "Ġå¹´": 3699,
      "èĩ³äºİ": 3700,
      "æĦ¿æĦı": 3701,
      "oc": 3702,
      "éĺĶ": 3703,
      "å¿ĥçļĦ": 3704,
      "è½¬åĮĸ": 3705,
      "çİ¯ä¿Ŀ": 3706,
      "éħįç½®": 3707,
      "ç¨į": 3708,
      "av": 3709,
      "æĲľ": 3710,
      "çļĦåŃ¦çĶŁ": 3711,
      "ä¸Ĭä¸ĭ": 3712,
      "è¶³å¤Ł": 3713,
      "åİĺ": 3714,
      "ä»£è°¢": 3715,
      "æ¡Ĩ": 3716,
      "èĦ¸": 3717,
      "åĽ½æ°ĳ": 3718,
      "ç©´": 3719,
      "è¯Ĺäºº": 3720,
      "æĪĲçļĦ": 3721,
      "å®ļä½į": 3722,
      "åħ¬éĩĮ": 3723,
      "åĢ¡": 3724,
      "å°±ä¸į": 3725,
      "ä¾ĿçĦ¶": 3726,
      "åİħ": 3727,
      "å¹ķ": 3728,
      "å¸ĤåľºçļĦ": 3729,
      "åħģè®¸": 3730,
      "ä½ĵåĪ¶": 3731,
      "ç½²": 3732,
      "é½¿": 3733,
      "ç»ĦåĲĪ": 3734,
      "æ¡Īä¾ĭ": 3735,
      "åĺī": 3736,
      "ä¼į": 3737,
      "åĦ¿åŃĲ": 3738,
      "æīįæĺ¯": 3739,
      "æĿĥçļĦ": 3740,
      "æŃ£ç¡®çļĦ": 3741,
      "è´¢åĬ¡": 3742,
      "ä¸ŃéĹ´": 3743,
      "çľŁçļĦ": 3744,
      "è¾ĥå¤§": 3745,
      "èİ·åıĸ": 3746,
      "æ·±åĪ»": 3747,
      "ĠèĢĮ": 3748,
      "ç»ıåħ¸": 3749,
      "æĺ¯åĽłä¸º": 3750,
      "ä¸ĢæĿ¡": 3751,
      "æĢª": 3752,
      "æ¸ħæĻ": 3753,
      "è´¤": 3754,
      "çľ¼çĿĽ": 3755,
      "æī«": 3756,
      "å¸¦æĿ¥çļĦ": 3757,
      "Ġå¯¹äºİ": 3758,
      "æĭĴ": 3759,
      "çĻĮçĹĩ": 3760,
      "çī§": 3761,
      "æĿ°": 3762,
      "ä¸Ģæ®µ": 3763,
      "ç§ĳçłĶ": 3764,
      "åłĨ": 3765,
      "åİĨåı²ä¸Ĭ": 3766,
      "æĬĢå·§": 3767,
      "åįļçī©é¦Ĩ": 3768,
      "çĶµæ±ł": 3769,
      "å®ĹæķĻ": 3770,
      "æĺ¯ä»¥": 3771,
      "åĬ©äºİ": 3772,
      "å£°éŁ³": 3773,
      "ä¿¡çĶ¨": 3774,
      "ç»ĨèıĮ": 3775,
      "çļĦè¦ģæ±Ĥ": 3776,
      "èĶ¬": 3777,
      "å·¢": 3778,
      "ä¼łç»ŁçļĦ": 3779,
      "åĩºçĶŁ": 3780,
      "æ·ĭ": 3781,
      "æ©": 3782,
      "éĹ²": 3783,
      "èĳ£": 3784,
      "è¿ĲèĲ¥": 3785,
      "åħ»èĢģ": 3786,
      "æĶ¯æĴĳ": 3787,
      "æ°Ľ": 3788,
      "27": 3789,
      "åĸĤ": 3790,
      "ç§ĳåŃ¦å®¶": 3791,
      "è½´": 3792,
      "åĿĽ": 3793,
      "åĽ¾çīĩ": 3794,
      "æħİ": 3795,
      "è¯¦ç»Ĩ": 3796,
      "åĪĽä¸ļ": 3797,
      "ç¤¾ä¼ļçļĦ": 3798,
      "ä¸ªæĢ§": 3799,
      "Ġ200": 3800,
      "äººæ°ĳå¸ģ": 3801,
      "å±ı": 3802,
      "æ¸Ĺ": 3803,
      "æŁĲç§į": 3804,
      "éĤ®": 3805,
      "çĶµèĦĳ": 3806,
      "ä¸ĸçķĮä¸Ĭ": 3807,
      "çĭĹ": 3808,
      "çĩ¥": 3809,
      "å¯»æī¾": 3810,
      "åľŁå£¤": 3811,
      "å¸¸è§ģçļĦ": 3812,
      "åĬłå¿«": 3813,
      "åľ°çĲĨ": 3814,
      "åĽ½å¤ĸ": 3815,
      "å½¹": 3816,
      "æįŁä¼¤": 3817,
      "æ¿Ģåıĳ": 3818,
      "æĹ¨": 3819,
      "ä¸ĵåĪ©": 3820,
      "å¯Ħ": 3821,
      "ä¸§": 3822,
      "åŃŁ": 3823,
      "å¾ĭå¸Ī": 3824,
      "å®¤åĨħ": 3825,
      "å¼ºçĥĪ": 3826,
      "ä¸Ģå¤©": 3827,
      "æĸ¹çļĦ": 3828,
      "å½ĵä¸Ń": 3829,
      "å·¨å¤§": 3830,
      "é¥±": 3831,
      "æİ¨å¹¿": 3832,
      "ir": 3833,
      "çĽ¸åħ³çļĦ": 3834,
      "æ·»åĬł": 3835,
      "çĩķ": 3836,
      "ä»¥ä¸ĬçļĦ": 3837,
      "æīĢå¾Ĺ": 3838,
      "å°ĳæķ°": 3839,
      "å½ĵäºĭäºº": 3840,
      "ç»§æī¿": 3841,
      "åĵģè´¨": 3842,
      "çłĶåıĳ": 3843,
      "ä¼Ĳ": 3844,
      "æķ´çĲĨ": 3845,
      "ç¨¿": 3846,
      "è¿ĺåı¯ä»¥": 3847,
      "åı¸æ³ķ": 3848,
      "åľ¨ä¸Ģèµ·": 3849,
      "äºĮæĺ¯": 3850,
      "å¿Ļ": 3851,
      "æŀĦå»º": 3852,
      "å¹³æĹ¶": 3853,
      "éĢĤçĶ¨": 3854,
      "èĳĽ": 3855,
      "æĬ¥éģĵ": 3856,
      "æ¬¢è¿İ": 3857,
      "æľīä»Ģä¹Ī": 3858,
      "èį¡": 3859,
      "æł¡åĽŃ": 3860,
      "ä¸Ģä¸ªäºº": 3861,
      "è¾½": 3862,
      "ä½ĵåĨħ": 3863,
      "åģļåĩº": 3864,
      "ç¬¬åĽĽ": 3865,
      "æĬ¢": 3866,
      "çģĮ": 3867,
      "èĤ©": 3868,
      "ä¾Ŀèµĸ": 3869,
      "æ°ĳä¸»": 3870,
      "èĤ¡ä»·": 3871,
      "éĶģ": 3872,
      "éªĳ": 3873,
      "çĽ´åĪ°": 3874,
      "å·¥ä½ľçļĦ": 3875,
      "ç§įæ¤į": 3876,
      "ä»ħä»ħ": 3877,
      "ä¸Ńå°ı": 3878,
      "é«ĺä¸Ń": 3879,
      "å¤ļå¹´": 3880,
      "ä¹¾": 3881,
      "åĶ¯ä¸Ģ": 3882,
      "çļĦè¡Įä¸º": 3883,
      "å¥´": 3884,
      "å¿ĥèĦı": 3885,
      "çļĦç¤¾ä¼ļ": 3886,
      "ç¬¬ä¸Ģä¸ª": 3887,
      "!\"": 3888,
      "ä½İäºİ": 3889,
      "å·¨å¤§çļĦ": 3890,
      "å¼¥": 3891,
      "çĤī": 3892,
      "èī¯å¥½": 3893,
      "çİ°åľº": 3894,
      "Ġ.": 3895,
      "éĥ¨çļĦ": 3896,
      "éģĵçĲĨ": 3897,
      "ç¾İçļĦ": 3898,
      "äººç¾¤": 3899,
      "æķĪåºĶ": 3900,
      "èµ¢": 3901,
      "è¾Ī": 3902,
      "ä¾Ŀæ³ķ": 3903,
      "è¯¾é¢ĺ": 3904,
      "çĽ¸åºĶçļĦ": 3905,
      "æľĢè¿ĳ": 3906,
      "):": 3907,
      "è¯ĹæŃĮ": 3908,
      "Ġ:": 3909,
      "äººæ°ĳæ³ķéĻ¢": 3910,
      "æĭĨ": 3911,
      "ter": 3912,
      "æ°¨": 3913,
      "æħĪ": 3914,
      "ç¬¬ä¸Ģæ¬¡": 3915,
      "çļĦå¥½": 3916,
      "èı©": 3917,
      "çªģçĦ¶": 3918,
      "èĽĭçĻ½è´¨": 3919,
      "åľ¨è¿Ļä¸ª": 3920,
      "çĶ¨æĿ¥": 3921,
      "ay": 3922,
      "èī²çļĦ": 3923,
      "èĢķ": 3924,
      "åĲĮä¸Ģ": 3925,
      "äºĭçī©": 3926,
      "è®¾ç«ĭ": 3927,
      "æ»´": 3928,
      "çĸ«æĥħ": 3929,
      "æ³Ħ": 3930,
      "ä¸įå¤Ł": 3931,
      "åºĶå¯¹": 3932,
      "åģļæ³ķ": 3933,
      "å¿į": 3934,
      "ç¢İ": 3935,
      "é¬": 3936,
      "åīª": 3937,
      "éķ¿çļĦ": 3938,
      "çĸ²": 3939,
      "å§ĭç»Ī": 3940,
      "éĤ£æł·": 3941,
      "éĵº": 3942,
      "å°Ĩä¼ļ": 3943,
      "å¯¸": 3944,
      "çľĭæĿ¥": 3945,
      "è®©æĪĳä»¬": 3946,
      "åıĻ": 3947,
      "è¿Ļå°±": 3948,
      "æ³ķè§Ħ": 3949,
      "çļĦæ°´": 3950,
      "èĴĻåı¤": 3951,
      "åı¦ä¸Ģæĸ¹éĿ¢": 3952,
      "çĹħçļĦ": 3953,
      "é¥²": 3954,
      "ç½Ĺæĸ¯": 3955,
      "å¦Ĥæŀľä½ł": 3956,
      "èµĶåģ¿": 3957,
      "çĥĤ": 3958,
      "èµ¶": 3959,
      "èµ°åĲĳ": 3960,
      "éĿĻèĦī": 3961,
      "å¾Īå¿«": 3962,
      "é¸£": 3963,
      "è¾ĥä¸º": 3964,
      "æ¯ıæ¬¡": 3965,
      "è¦ģæľī": 3966,
      "åĲĦç±»": 3967,
      "çľŁæŃ£çļĦ": 3968,
      "æĸĩçī©": 3969,
      "2017": 3970,
      "è¯ĨåĪ«": 3971,
      "æ°ĶåĢĻ": 3972,
      "äº§æĿĥ": 3973,
      "äº«åıĹ": 3974,
      "åīĳ": 3975,
      "å®ĥæĺ¯": 3976,
      "éĥ½åı¯ä»¥": 3977,
      "åĴ³": 3978,
      "èħĬ": 3979,
      "éŁµ": 3980,
      "çĶŁæ´»çļĦ": 3981,
      "åİĺç±³": 3982,
      "è´¢å¯Į": 3983,
      "åľ°çļĦ": 3984,
      "æĿĥåĬĽ": 3985,
      "ä¸ŃåŃ¦": 3986,
      "æĢ§æł¼": 3987,
      "æ»ŀ": 3988,
      "å±±ä¸ľ": 3989,
      "å¤ļæ¬¡": 3990,
      "ç´§å¼ł": 3991,
      "æ°¸è¿ľ": 3992,
      "æŁ³": 3993,
      "åĽĽä¸ª": 3994,
      "èĥģ": 3995,
      "ä¸°å¯ĮçļĦ": 3996,
      "çºªå¿µ": 3997,
      "çĶ·æĢ§": 3998,
      "èĢ¶": 3999,
      "ä»Ģä¹Īæĺ¯": 4000,
      "æĢ»ä½ĵ": 4001,
      "ä¹Łæ²¡æľī": 4002,
      "å®¿": 4003,
      "åħ¬å¼Ģ": 4004,
      "ä»Ķ": 4005,
      "ä¼ĺåĮĸ": 4006,
      "èĥİåĦ¿": 4007,
      "æľīåı¯èĥ½": 4008,
      "500": 4009,
      "çĤ®": 4010,
      "æĬ¼": 4011,
      "éĢļçŁ¥": 4012,
      "é£ŁçĶ¨": 4013,
      "èĲ½å®ŀ": 4014,
      "å¹´çº§": 4015,
      "æĺ¯ä¸ª": 4016,
      "éĥ½èĥ½": 4017,
      "è®¤å®ļ": 4018,
      "ä¸Ģæĸ¹éĿ¢": 4019,
      "èĪĮ": 4020,
      "çİĦ": 4021,
      "çļĦç»ĵæŀľ": 4022,
      "åĩ½": 4023,
      "æĭ¼": 4024,
      "è±ª": 4025,
      "æĺ¯ä¸ŃåĽ½": 4026,
      "ä¸įçŁ¥éģĵ": 4027,
      "åķ¡": 4028,
      ";(": 4029,
      "å¼ºåĮĸ": 4030,
      "åĲįç§°": 4031,
      "ä½Ĩåľ¨": 4032,
      "å¾Īå°ĳ": 4033,
      "éªĹ": 4034,
      "å°ıç¼ĸ": 4035,
      "2018": 4036,
      "åĴĸ": 4037,
      "çķĻä¸ĭ": 4038,
      "è¦ģç´ł": 4039,
      "ç®ĢåįķçļĦ": 4040,
      "æĥľ": 4041,
      "è¢Ń": 4042,
      "ä¸ĬéĿ¢": 4043,
      "ç¼ĵè§£": 4044,
      "Ġä¸Ń": 4045,
      "å¾½": 4046,
      "å¹³æĸ¹": 4047,
      "ç¡ķ": 4048,
      "ä¸įäºĨ": 4049,
      "åħĦ": 4050,
      "å½»åºķ": 4051,
      "å¾Īå®¹æĺĵ": 4052,
      "æ¸ħæĻ°": 4053,
      "Ġk": 4054,
      "2000": 4055,
      "èĦĬ": 4056,
      "ç¾¤ä½ĵ": 4057,
      "ĠåİŁ": 4058,
      "å¯ĨåĪĩ": 4059,
      "Ġj": 4060,
      "çļĦè¿ĩç¨ĭä¸Ń": 4061,
      "éª¤": 4062,
      "æİ¥è¿ĳ": 4063,
      "å°ıè¯´": 4064,
      "cm": 4065,
      "æĳĺ": 4066,
      "åıĳè¡Į": 4067,
      "èĶ¬èıľ": 4068,
      "ä¿¡å¿ĥ": 4069,
      "é¼ł": 4070,
      "æĺ¯ä¸įæĺ¯": 4071,
      "çĴĥ": 4072,
      "åĲįåŃĹ": 4073,
      "è¿ĩåº¦": 4074,
      "æĴ¤": 4075,
      "è¾ī": 4076,
      "ç»ĵè®º": 4077,
      "çĸ«èĭĹ": 4078,
      "çļĦåıĺåĮĸ": 4079,
      "æĥĳ": 4080,
      "çľĭçľĭ": 4081,
      "æħ¢æħ¢": 4082,
      "éĿĴå¹´": 4083,
      "ä¸¥éĩįçļĦ": 4084,
      "çģµæ´»": 4085,
      "åŁĥ": 4086,
      "éĢļä¿¡": 4087,
      "pp": 4088,
      "æĽ¼": 4089,
      "å¤§çº¦": 4090,
      "ä¹Łå°±æĺ¯è¯´": 4091,
      "æĢ¥æĢ§": 4092,
      "ä½ıæĪ¿": 4093,
      "æ±ģ": 4094,
      "æı´": 4095,
      "æľĢä¸º": 4096,
      "åŃĲå¥³": 4097,
      "è¯ŀ": 4098,
      "åħ±äº«": 4099,
      "åįĹäº¬": 4100,
      "åĲ¯åĬ¨": 4101,
      "å±Ģéĥ¨": 4102,
      "åŃĶåŃĲ": 4103,
      "æĻĵ": 4104,
      "æĦŁæĥħ": 4105,
      "Ġä¸į": 4106,
      "è¯·æ±Ĥ": 4107,
      "åħ±åĴĮ": 4108,
      "ç»ĺçĶ»": 4109,
      "æĢĿè·¯": 4110,
      "å¹³çŃī": 4111,
      "æĬĢæľ¯çļĦ": 4112,
      "æĪĸæĺ¯": 4113,
      "å°Ŀè¯ķ": 4114,
      "æľīå¾Īå¤ļ": 4115,
      "æıŃ": 4116,
      "æĪĳä»¬åı¯ä»¥": 4117,
      "éĤª": 4118,
      "ç¥¥": 4119,
      "åĬ¨èĦī": 4120,
      "å½¢æĪĲäºĨ": 4121,
      "çİ»": 4122,
      "è½¦è¾Ĩ": 4123,
      "åĸ»": 4124,
      "ĠäºĶ": 4125,
      "é«ĺäºİ": 4126,
      "éģĹä¼ł": 4127,
      "åĮ¹": 4128,
      "èįĴ": 4129,
      "äºŃ": 4130,
      "èĤ¡ä¸ľ": 4131,
      "èĥĸ": 4132,
      "åıī": 4133,
      "å¼Ħ": 4134,
      "æĢĢåŃķ": 4135,
      "çļĦåŁºç¡Ģä¸Ĭ": 4136,
      "èĴ¸": 4137,
      "29": 4138,
      "36": 4139,
      "éħ¶": 4140,
      "è°¨": 4141,
      "ç«ĭåį³": 4142,
      "çĨŁæĤī": 4143,
      "èī°": 4144,
      "å¤§å¤§": 4145,
      "æĶ¶éĽĨ": 4146,
      "çĸĨ": 4147,
      "çĶµå½±": 4148,
      "åĻ¨çļĦ": 4149,
      "å®«é¢Ī": 4150,
      "å®¾": 4151,
      "çº²": 4152,
      "å®¶æĹı": 4153,
      "æľĢæĹ©": 4154,
      "å¯¹å¤ĸ": 4155,
      "åį§": 4156,
      "æ³¨åĨĮ": 4157,
      "äºĭå®ŀä¸Ĭ": 4158,
      "çĲĨçĶ±": 4159,
      "çĹħæĥħ": 4160,
      "æ¸łéģĵ": 4161,
      "åıĳæĺİ": 4162,
      "Ġç¬¬ä¸Ģ": 4163,
      "æįķ": 4164,
      "çĽĳæµĭ": 4165,
      "ç¬ĶèĢħ": 4166,
      "ä¸»å¼ł": 4167,
      "æĤ¬": 4168,
      "äº§åĵģçļĦ": 4169,
      "åĬłä»¥": 4170,
      "æĬļ": 4171,
      "è¿Ļç±»": 4172,
      "è¿ĳå¹´æĿ¥": 4173,
      "éĩįå¤į": 4174,
      "å¤§åĪ©": 4175,
      "è§Ĩé¢ĳ": 4176,
      "ä¼ª": 4177,
      "èĤ¡å¸Ĥ": 4178,
      "åĺ´": 4179,
      "åĴĸåķ¡": 4180,
      "éĵģè·¯": 4181,
      "çŃĭ": 4182,
      "ä¸įçĶ¨": 4183,
      "äººä¸º": 4184,
      "ä½ĵä¼ļ": 4185,
      "ç¦»å¼Ģ": 4186,
      "æıĲåĩºäºĨ": 4187,
      "æĢĴ": 4188,
      "æķıæĦŁ": 4189,
      "ä¸įä½Ĩ": 4190,
      "è§£æĶ¾": 4191,
      "å¥ĳ": 4192,
      "æıĲéĨĴ": 4193,
      "Ġç¬¬ä¸ī": 4194,
      "åŁºåľ°": 4195,
      "å¼¯": 4196,
      "æīĵå¼Ģ": 4197,
      "çİĭæľĿ": 4198,
      "åĩºåıĳ": 4199,
      "è¦ĨçĽĸ": 4200,
      "è¿ĩæķı": 4201,
      "ä»ĸåľ¨": 4202,
      "äºı": 4203,
      "æµĨ": 4204,
      "å¤§å¤ļ": 4205,
      "æĥ³æ³ķ": 4206,
      "åĬłå¤§": 4207,
      "åĩłå¹´": 4208,
      "ä¾ĭåŃĲ": 4209,
      "å¼ķèµ·çļĦ": 4210,
      "å±ħä½ı": 4211,
      "çĸ¹": 4212,
      "\";": 4213,
      "äºĴåĬ¨": 4214,
      "å¯¹æ¯Ķ": 4215,
      "èĳ¬": 4216,
      "çļĦåıĳçĶŁ": 4217,
      "éķ¿æĹ¶éĹ´": 4218,
      "çĭĤ": 4219,
      "Ġæį®": 4220,
      "èħ¾": 4221,
      "Ġy": 4222,
      "æºĥ": 4223,
      "æĸľ": 4224,
      "æĥħå½¢": 4225,
      "èº«ä¸Ĭ": 4226,
      "æµģè¡Į": 4227,
      "æĳ¸": 4228,
      "æį·": 4229,
      "åĥ§": 4230,
      "è¿ĻæĹ¶": 4231,
      "èĢĮåľ¨": 4232,
      "197": 4233,
      "æľįçĶ¨": 4234,
      "èĸª": 4235,
      "ss": 4236,
      "Ġæł¹æį®": 4237,
      "ä½ľåĩº": 4238,
      "çłĸ": 4239,
      "éĺ²æ²»": 4240,
      "og": 4241,
      "çļĦæķĻåŃ¦": 4242,
      "æ··åĲĪ": 4243,
      "çŁ³æ²¹": 4244,
      "é©¾é©¶": 4245,
      "åı¯ä»¥åľ¨": 4246,
      "å±ķå¼Ģ": 4247,
      "æ»¤": 4248,
      "è§Ĵèī²": 4249,
      "å¾Īå¥½çļĦ": 4250,
      "åĤ¬": 4251,
      "éĶĭ": 4252,
      "å¦ĩå¥³": 4253,
      "æ¾³": 4254,
      "æĳĦåħ¥": 4255,
      "è¿Ľåı£": 4256,
      "é«ĺè¡Ģåİĭ": 4257,
      "æ¢¯": 4258,
      "åģļäºĨ": 4259,
      "åĩ¤": 4260,
      "å¤ļæł·": 4261,
      "æ¿ĢåĬ±": 4262,
      "æķ´åĲĪ": 4263,
      "èĬ½": 4264,
      "äººå·¥æĻºèĥ½": 4265,
      "å¹»": 4266,
      "åĲĮåŃ¦ä»¬": 4267,
      "ä¿®æĶ¹": 4268,
      "mm": 4269,
      "åģļçļĦ": 4270,
      "å¼ºåº¦": 4271,
      "ä¸ĩäºº": 4272,
      "åĩıè½»": 4273,
      "è¾ĸ": 4274,
      "æĭ³": 4275,
      "è¦ģæ³¨æĦı": 4276,
      "åĬŀçĲĨ": 4277,
      "éĽ¾": 4278,
      "éŃĤ": 4279,
      "Ġal": 4280,
      "æ·±åº¦": 4281,
      "æ¶Īå¤±": 4282,
      "è¡¨çİ°ä¸º": 4283,
      "åįģäºĶ": 4284,
      "å±ĤéĿ¢": 4285,
      "åħ¬å¹³": 4286,
      "ä¸ľåĮĹ": 4287,
      "é¢ĩ": 4288,
      "å±¥è¡Į": 4289,
      "ç¡®è®¤": 4290,
      "åīįåĪĹ": 4291,
      "å¹¼åĦ¿åĽŃ": 4292,
      "çī¢": 4293,
      "å»ī": 4294,
      "æµĭéĩı": 4295,
      "åħ»æĪĲ": 4296,
      "å¹¿ä¸ľ": 4297,
      "çıŃçº§": 4298,
      "è¿Ļä¸ĢçĤ¹": 4299,
      "èµ«": 4300,
      "æĤ£èĢħçļĦ": 4301,
      "Ġæĸ°": 4302,
      "æµĻæ±Ł": 4303,
      "è¢ģ": 4304,
      "ä¸ĬäºĨ": 4305,
      "çĪ¸çĪ¸": 4306,
      "åįıä¼ļ": 4307,
      "åģľæŃ¢": 4308,
      "ers": 4309,
      "æ¯ıä¸Ģ": 4310,
      "çī©æµģ": 4311,
      "ç¢°": 4312,
      "äººå£«": 4313,
      "åĻ¨å®ĺ": 4314,
      "æıĲåīį": 4315,
      "åħ¨èº«": 4316,
      "2016": 4317,
      "æĽ¹æĵį": 4318,
      "è¿Ľç¨ĭ": 4319,
      "Ġi": 4320,
      "éĹ´çļĦ": 4321,
      "é¢ĦæľŁ": 4322,
      "ä¹Łåľ¨": 4323,
      "ä¹Łåı¯": 4324,
      "dp": 4325,
      "éĥ¨éĺŁ": 4326,
      "æŀª": 4327,
      "åĲ¹": 4328,
      "çīµ": 4329,
      "èĢģäºº": 4330,
      "æ³»": 4331,
      "åĬŀåħ¬": 4332,
      "çĶľ": 4333,
      "çļĦçĽ®çļĦ": 4334,
      "ä¹ĭå¤Ħ": 4335,
      "ĠæīĢä»¥": 4336,
      "åı°æ¹¾": 4337,
      "çļĦè§Ħå®ļ": 4338,
      "ä¹ĭæīĢä»¥": 4339,
      "è´Łæĭħ": 4340,
      "åĽ½åĬ¡": 4341,
      "çĮĽ": 4342,
      "ç»ıçĲĨ": 4343,
      "éĢłæĪĲçļĦ": 4344,
      "è¢ĭ": 4345,
      "éĤ»": 4346,
      "é¦Ļæ¸¯": 4347,
      "å¤§å¹ħ": 4348,
      "èµ·åĪ°": 4349,
      "æľīåĬ©äºİ": 4350,
      "çĨĻ": 4351,
      "Ġå°ı": 4352,
      "æĪĸè®¸": 4353,
      "åĪĽå»º": 4354,
      "æĨ": 4355,
      "ç¨ĭåº¦ä¸Ĭ": 4356,
      "èĵĦ": 4357,
      "Ġä¸º": 4358,
      "æ²³åįĹ": 4359,
      "æĪĲäºº": 4360,
      "æ¡Ĥ": 4361,
      "è§Ħå®ļçļĦ": 4362,
      "èĩªè¡Į": 4363,
      "ç¢±": 4364,
      "å§Ĩ": 4365,
      "å°ĨåĨĽ": 4366,
      "ä¸ĭåİ»": 4367,
      "å¤ĸçļĦ": 4368,
      "æĳĩ": 4369,
      "åľºæīĢ": 4370,
      "çĽ¸åıį": 4371,
      "å¯¹æŃ¤": 4372,
      "ä¿ĿåŃĺ": 4373,
      "ä¾¿æĺ¯": 4374,
      "åĨ»": 4375,
      "éĨī": 4376,
      "çŁŃæľŁ": 4377,
      "çļĦçī¹çĤ¹": 4378,
      "æĪĳä»¬åľ¨": 4379,
      "æľ¬ä¹¦": 4380,
      "ä¸įå¦Ĥ": 4381,
      "èģĺ": 4382,
      "ä¸ĭè·Į": 4383,
      "åŁĭ": 4384,
      "çĹĽèĭ¦": 4385,
      "300": 4386,
      "Ġis": 4387,
      "ä½¿çĶ¨çļĦ": 4388,
      "å¿ĹæĦ¿": 4389,
      "æĹłè®ºæĺ¯": 4390,
      "ä¸īç§į": 4391,
      "è¿ĽèĢĮ": 4392,
      "çĤİçĹĩ": 4393,
      "çķª": 4394,
      "æĸ¤": 4395,
      "éĻ¢æł¡": 4396,
      "åĲĪæ³ķ": 4397,
      "åŃĺåľ¨çļĦ": 4398,
      "åĽ½æľī": 4399,
      "ä½ĵéĩį": 4400,
      "çī¹æĢ§": 4401,
      "æ³¢åĬ¨": 4402,
      "æĪĳä»¬è¦ģ": 4403,
      "æĭħå¿ĥ": 4404,
      "åĵŃ": 4405,
      "éĥİ": 4406,
      "åı¸é©¬": 4407,
      "è´ª": 4408,
      "ç³Ĭ": 4409,
      "å°Ĩåħ¶": 4410,
      "æĶ¶èĹı": 4411,
      "æĸĩçĮ®": 4412,
      "çĲĨæĢ§": 4413,
      "åĴ½": 4414,
      "ç»ĻåŃ©åŃĲ": 4415,
      "æĬĽ": 4416,
      "æĺ¾çĦ¶": 4417,
      "ex": 4418,
      "é¬¼": 4419,
      "æĮĩæĮ¥": 4420,
      "å¹½": 4421,
      "ä¼łæŁĵ": 4422,
      "æĭĽçĶŁ": 4423,
      "çļĦåħ³éĶ®": 4424,
      "çĹħåıĺ": 4425,
      "èĭıèģĶ": 4426,
      "è¯µ": 4427,
      "æľĪç»ı": 4428,
      "åĽŀåĪ°": 4429,
      "æĶ»åĩ»": 4430,
      "å²Ń": 4431,
      "ä¸įåı¯èĥ½": 4432,
      "çº¢èī²": 4433,
      "åķĨæłĩ": 4434,
      "åĵªéĩĮ": 4435,
      "çĽ¸ä¼¼": 4436,
      "åĽ½åĬ¡éĻ¢": 4437,
      "è¢«ç§°ä¸º": 4438,
      "æĵ¦": 4439,
      "æºª": 4440,
      "è½¬æį¢": 4441,
      "åıįå¯¹": 4442,
      "åĬ²": 4443,
      "åħĪåĲİ": 4444,
      "ä¼Ĺå¤ļ": 4445,
      "çİ»çĴĥ": 4446,
      "å¯¹åºĶ": 4447,
      "èģĮå·¥": 4448,
      "é«ĺçº§": 4449,
      "ç±»çļĦ": 4450,
      "èµĦæł¼": 4451,
      ":(": 4452,
      "çĽ²": 4453,
      "è¿Ļä¹Łæĺ¯": 4454,
      "æī¹è¯Ħ": 4455,
      "ä¹ĭä¸ĭ": 4456,
      "åĲĪéĢĤ": 4457,
      "æİ¢ç©¶": 4458,
      "æĶ¹éĢł": 4459,
      "çĶµè¯Ŀ": 4460,
      "ä¼ĳæģ¯": 4461,
      "ä¿±": 4462,
      "å§ľ": 4463,
      "æıĲç¤º": 4464,
      "æ¶Īæģ¯": 4465,
      "ç¼Ŀ": 4466,
      "å¾Īå¥½": 4467,
      "éĩĬæĶ¾": 4468,
      "Ġä»¥": 4469,
      "èľĢ": 4470,
      "çļĦæķ°æį®": 4471,
      "34": 4472,
      "na": 4473,
      "ä¸Ģä»£": 4474,
      "è¾ħåĬ©": 4475,
      "éĥ¡": 4476,
      "Ġch": 4477,
      "ä¸ĺ": 4478,
      "èµł": 4479,
      "æµ¸": 4480,
      "å¤§åŀĭ": 4481,
      "éĿĴå°ĳå¹´": 4482,
      "è¿Ļæ¬¡": 4483,
      "åľ¨è¿ĻéĩĮ": 4484,
      "å¨ģèĥģ": 4485,
      "æľĪä»½": 4486,
      "æ°´çļĦ": 4487,
      "2015": 4488,
      "é«ĵ": 4489,
      "åĬ¨æĢģ": 4490,
      "åŃĺåĤ¨": 4491,
      "éļ¾åº¦": 4492,
      "éĵ¸": 4493,
      "åķĨåĬ¡": 4494,
      "èĪ°": 4495,
      "æķ°çļĦ": 4496,
      "çħ®": 4497,
      "åĨħæ¶µ": 4498,
      "æ°¢": 4499,
      "è§Ĩè§ī": 4500,
      "åħ¬æ°ĳ": 4501,
      "é¢ĺçĽ®": 4502,
      "æĺ¯éĿŀå¸¸": 4503,
      "åı¦ä¸Ģä¸ª": 4504,
      "åĬ£": 4505,
      "å½ĵå¹´": 4506,
      "å®ŀåľ¨": 4507,
      "Ġä½Ĩ": 4508,
      "å½ĵæĹ¶çļĦ": 4509,
      "èĢĥå¯Ł": 4510,
      "éĻķ": 4511,
      "æĽ´å¥½çļĦ": 4512,
      "æ¶ĪéĻ¤": 4513,
      "éĹ¹": 4514,
      "æ¡Į": 4515,
      "æĥ§": 4516,
      "åĲįçļĦ": 4517,
      "æłı": 4518,
      "é©»": 4519,
      "çĤŃ": 4520,
      "è¾ĵåħ¥": 4521,
      "å¹¿å¤§": 4522,
      "è¿ĩäºİ": 4523,
      "1000": 4524,
      "å¾Ĺä»¥": 4525,
      "å¤©çļĦ": 4526,
      "åİŁæĿ¥": 4527,
      "æķĪçĽĬ": 4528,
      "ä¹³èħº": 4529,
      "å¤§äºİ": 4530,
      "æĶ¾å¼ĥ": 4531,
      "è¾ĥé«ĺ": 4532,
      "çİ°åľ¨çļĦ": 4533,
      "æĿĥçĽĬ": 4534,
      "ä¹Łèĥ½": 4535,
      "å½ĵä»£": 4536,
      "çªĳ": 4537,
      "ç¿»è¯ĳ": 4538,
      "éĶħ": 4539,
      "çľĭåĩº": 4540,
      "è¯´è¯Ŀ": 4541,
      "åĭĥ": 4542,
      "37": 4543,
      "å¿ĥçģµ": 4544,
      "ä¸īåįģ": 4545,
      "çļĦä¿¡æģ¯": 4546,
      "èģĬ": 4547,
      "se": 4548,
      "è¿ĺèĥ½": 4549,
      "ä¿Ħç½Ĺæĸ¯": 4550,
      "æłª": 4551,
      "and": 4552,
      "æĺİçļĦ": 4553,
      "å¾Īæľī": 4554,
      "å®ļæľŁ": 4555,
      "èģª": 4556,
      "å¾ĹåĪ°äºĨ": 4557,
      "ĠçĶ±äºİ": 4558,
      "å¼ıçļĦ": 4559,
      "äº§éĩı": 4560,
      "ä¾Ľç»Ļ": 4561,
      "æµ·æ´ĭ": 4562,
      "çº³ç¨İ": 4563,
      "çĤĴ": 4564,
      "å¹´éĹ´": 4565,
      "åĨ²çªģ": 4566,
      "æĥ³åĪ°": 4567,
      "åĨħåľ¨": 4568,
      "å¥Ķ": 4569,
      "éĺ¶çº§": 4570,
      "å¤©æ°Ķ": 4571,
      "åĲįä¸º": 4572,
      "ç»Īäºİ": 4573,
      "äºĴçĽ¸": 4574,
      "è¸ı": 4575,
      "ä¿Ŀåģ¥": 4576,
      "æľ¬æĸĩ": 4577,
      "sp": 4578,
      "åıįèĢĮ": 4579,
      "åĲİæŀľ": 4580,
      "ä¾ĿéĿł": 4581,
      "å¯¹å¾ħ": 4582,
      "ç¦ģæŃ¢": 4583,
      "æľµ": 4584,
      "31": 4585,
      "å²³": 4586,
      "åħ¬å¸ĥ": 4587,
      "ä¼łæī¿": 4588,
      "èĳĹåĲįçļĦ": 4589,
      "åµ": 4590,
      "195": 4591,
      "ç©¶ç«Ł": 4592,
      "æĺİæĺ¾çļĦ": 4593,
      "éĻª": 4594,
      "çļĦçŁ¥è¯Ĩ": 4595,
      "æĹłçĸĳ": 4596,
      "èľĤ": 4597,
      "åºĶè¯¥æĺ¯": 4598,
      "éĻĦè¿ĳ": 4599,
      "èİ²": 4600,
      "èĤĥ": 4601,
      "æģĭ": 4602,
      "çº¿çļĦ": 4603,
      "æ°ĳäºĭ": 4604,
      "èĤłéģĵ": 4605,
      "æī¹åĩĨ": 4606,
      "ç¼ĸè¾ĳ": 4607,
      "åĳ½ä»¤": 4608,
      "åŁİéķĩ": 4609,
      "åĬłéĢŁ": 4610,
      "å¤ĸéĥ¨": 4611,
      "ib": 4612,
      "åĲķ": 4613,
      "åįĩçº§": 4614,
      "èĬ¯": 4615,
      "ĠåĽ¾": 4616,
      "å½¢æĪĲçļĦ": 4617,
      "åľºæĻ¯": 4618,
      "åĬłéĩį": 4619,
      "Ġx": 4620,
      "çĻ¾åĪĨ": 4621,
      "ç»ĨèĬĤ": 4622,
      "çĪ·": 4623,
      "åĮºåĿĹ": 4624,
      "æĪĺæĸĹ": 4625,
      "èĳĹä½ľ": 4626,
      "38": 4627,
      "åĬĽåĴĮ": 4628,
      "æĬĳéĥģ": 4629,
      "å£³": 4630,
      "åİŁå§ĭ": 4631,
      "åĢºåĪ¸": 4632,
      "è¿ĺæ²¡æľī": 4633,
      "å¯¹æĸ¹": 4634,
      "å¿½è§Ĩ": 4635,
      "ä¸ĢçĶŁ": 4636,
      "å¸ĪçĶŁ": 4637,
      "æķĻå¸ĪçļĦ": 4638,
      "ĠçĽ®åīį": 4639,
      "å®ª": 4640,
      "å¤¹": 4641,
      "èĩªè§ī": 4642,
      "é«ĺæķĪ": 4643,
      "éĹª": 4644,
      "åŁºæľ¬ä¸Ĭ": 4645,
      "çĪĨåıĳ": 4646,
      "èķ´": 4647,
      "å¹¶åľ¨": 4648,
      "åĽĽå·Ŀ": 4649,
      "åı¹": 4650,
      "å¢ŀåĢ¼": 4651,
      "çĮ«": 4652,
      "éĥŃ": 4653,
      "é«ĺçŃī": 4654,
      "ä¸Ģä½ĵ": 4655,
      "æĽ¿ä»£": 4656,
      "194": 4657,
      "éģĹäº§": 4658,
      "ç¾İä¸½": 4659,
      "å¼ºåĪ¶": 4660,
      "çĽĹ": 4661,
      "åįĥä¸ĩ": 4662,
      "å½ķåıĸ": 4663,
      "\",\"": 4664,
      "åĲĦåĽ½": 4665,
      "è½¬åŀĭ": 4666,
      "åıįæĢĿ": 4667,
      "çºłçº·": 4668,
      "åħ¸åŀĭ": 4669,
      "æĲº": 4670,
      "æ¶ĪèĢĹ": 4671,
      "åłª": 4672,
      "åľ°éľĩ": 4673,
      "åħ³å¿ĥ": 4674,
      "ä¹ĭä¸º": 4675,
      "åł¡": 4676,
      "çº¦å®ļ": 4677,
      "è±¡å¾ģ": 4678,
      "æł½": 4679,
      "çļĦçİ¯å¢ĥ": 4680,
      "çļĦæľºä¼ļ": 4681,
      "æļĳ": 4682,
      "è¡Ģç³ĸ": 4683,
      "éľī": 4684,
      "åīįåĪĹèħº": 4685,
      "æŃ¥éª¤": 4686,
      "æīįä¼ļ": 4687,
      "è¯¾åłĤæķĻåŃ¦": 4688,
      "Ġé¦ĸåħĪ": 4689,
      "çĶŁæĪĲ": 4690,
      "è¿ª": 4691,
      "å¸ĿåĽ½": 4692,
      "åĽ´ç»ķ": 4693,
      "éĺĲ": 4694,
      "èĬ³": 4695,
      "çĭŃ": 4696,
      "ist": 4697,
      "ç§Ĵ": 4698,
      "å¤§å¸Ī": 4699,
      "å®ŀä½ĵ": 4700,
      "è¡¥åģ¿": 4701,
      "å¤įä¹ł": 4702,
      "è¿ĩçļĦ": 4703,
      "æĺ¯ä»İ": 4704,
      "èµļ": 4705,
      "è¯»èĢħ": 4706,
      "æĶ¹è¿Ľ": 4707,
      "æ¡ĳ": 4708,
      "è¯¸èĳĽ": 4709,
      "ä¸įä»ħä»ħ": 4710,
      "æİ¢è®¨": 4711,
      "å¢ĥçķĮ": 4712,
      "æĴŀ": 4713,
      "å§»": 4714,
      "ä¿®å¤į": 4715,
      "åĩºçīĪç¤¾": 4716,
      "cp": 4717,
      "èĥ½åĬĽçļĦ": 4718,
      "åħ»æ®ĸ": 4719,
      "å°±åľ¨": 4720,
      "æĤł": 4721,
      "æĺ¾å¾Ĺ": 4722,
      "äº¿ç¾İåħĥ": 4723,
      "æ°´æŀľ": 4724,
      "ä¸Ģéĥ¨åĪĨ": 4725,
      "åīįçļĦ": 4726,
      "æī©å¼ł": 4727,
      "eb": 4728,
      "ä¸Ģæł·çļĦ": 4729,
      "co": 4730,
      "ä¸įåľ¨": 4731,
      "çļĦåı¯èĥ½": 4732,
      "çļĦçİ°è±¡": 4733,
      "éĿŀæ³ķ": 4734,
      "èŀº": 4735,
      "çļĦç»ıæµİ": 4736,
      "ä¼łè¯´": 4737,
      "æ¯ıä¸ªäºº": 4738,
      "ç²®é£Ł": 4739,
      "åĢ¾åĲĳ": 4740,
      "æĹº": 4741,
      "ä¸ĭåĪĹ": 4742,
      "çļĦé£İéĻ©": 4743,
      "é³": 4744,
      "ç¨İæĶ¶": 4745,
      "32": 4746,
      "å¦Ĭ": 4747,
      "åįģåħ«": 4748,
      "é£ŀæľº": 4749,
      "å¤Ħç½ļ": 4750,
      "éĴ»": 4751,
      "åĨħå¿ĥ": 4752,
      "æľĢå¥½çļĦ": 4753,
      "é©¬åħĭ": 4754,
      "æ´»åĬ¨çļĦ": 4755,
      "å²Ĺä½į": 4756,
      "çŃīæĸ¹éĿ¢": 4757,
      "èİ±": 4758,
      "æĿ¥äºĨ": 4759,
      "åĴĮç¤¾ä¼ļ": 4760,
      "æ¬£èµı": 4761,
      "è£ħé¥°": 4762,
      "æĬ¤çĲĨ": 4763,
      "åıĳä½ľ": 4764,
      "æĿ¥è®²": 4765,
      "75": 4766,
      "èĤ¡æĿĥ": 4767,
      "ä¼łéĢĴ": 4768,
      "æķ¦": 4769,
      "ä¸²": 4770,
      "åħ±åĴĮåĽ½": 4771,
      "éģ¥": 4772,
      "æĺİæľĿ": 4773,
      "æİĴæĶ¾": 4774,
      "Ġè¦ģ": 4775,
      "æĤ¦": 4776,
      "å¼ĺ": 4777,
      "å¤ĸåĽ½": 4778,
      "èĩªèº«çļĦ": 4779,
      "ä¿ĿçķĻ": 4780,
      "äºīè®®": 4781,
      "å¸ĥå±Ģ": 4782,
      "ä»£çłģ": 4783,
      "ä»£çĲĨ": 4784,
      "åįµå·¢": 4785,
      "éĺ´éģĵ": 4786,
      "éĺģ": 4787,
      "èĥ°": 4788,
      "é¡ºåĪ©": 4789,
      "å¸¸è§Ħ": 4790,
      "äººæķ°": 4791,
      "äººåĬĽ": 4792,
      "æµĵåº¦": 4793,
      "åĮĢ": 4794,
      "é©±åĬ¨": 4795,
      "æĪĲäº¤": 4796,
      "ç§©": 4797,
      "éģĤ": 4798,
      "èľľ": 4799,
      "åı«åģļ": 4800,
      "çĦ¦èĻĳ": 4801,
      "çĸĹæ³ķ": 4802,
      "æ¯ķç«Ł": 4803,
      "åıĪæĺ¯": 4804,
      "ç¥Ŀ": 4805,
      "æľīåĵªäºĽ": 4806,
      "çº½": 4807,
      "èĻļæĭŁ": 4808,
      "åıĳçĶµ": 4809,
      "çŁ£": 4810,
      "å¨ł": 4811,
      "äººä¸İ": 4812,
      "åĲİæľŁ": 4813,
      "å¤§æ¦Ĥ": 4814,
      "ä¸ĸçķĮçļĦ": 4815,
      "ãĢĭ)": 4816,
      "å½¢åĬ¿": 4817,
      "ä¹ĭè·¯": 4818,
      "äºĪä»¥": 4819,
      "ä½©": 4820,
      "çļĦå½¢å¼ı": 4821,
      "æĪĳæĥ³": 4822,
      "ate": 4823,
      "æľ¬ç§ĳ": 4824,
      "éĶĲ": 4825,
      "å®ıè§Ĥ": 4826,
      "ä¼ļåľ¨": 4827,
      "æ£ĢéªĮ": 4828,
      "æłĳç«ĭ": 4829,
      "çļĦæĬĢæľ¯": 4830,
      "å¦Ĭå¨ł": 4831,
      "è¿Ŀæ³ķ": 4832,
      "åĲĦèĩª": 4833,
      "åĴĮåħ¶ä»ĸ": 4834,
      "éĩįè¦ģçļĦæĺ¯": 4835,
      "åŃ¦çĶŁåľ¨": 4836,
      "çļĦä¸Ń": 4837,
      "æ¼Ĩ": 4838,
      "é¦ĸæ¬¡": 4839,
      "ä¼ļåĩºçİ°": 4840,
      "æľĢä½İ": 4841,
      "éī´å®ļ": 4842,
      "ä½ľæĪĺ": 4843,
      "é»İ": 4844,
      "è¿Ļä¸ªéĹ®é¢ĺ": 4845,
      "èı©èĲ¨": 4846,
      "åİĮ": 4847,
      "åĴĮå¹³": 4848,
      "çļĦç²¾ç¥ŀ": 4849,
      "ä¸īå¤§": 4850,
      "è¸ª": 4851,
      "è£ħç½®": 4852,
      "åħ·ä½ĵçļĦ": 4853,
      "å¤§æķ°æį®": 4854,
      "æľªæĿ¥çļĦ": 4855,
      "äº¤æį¢": 4856,
      "ect": 4857,
      "äºĭé¡¹": 4858,
      "èĮĥåĽ´åĨħ": 4859,
      "åīĬ": 4860,
      "çĽ¸å½ĵäºİ": 4861,
      "äº¤å¾Ģ": 4862,
      "æĹ¥çĽĬ": 4863,
      "èº«è¾¹": 4864,
      "éĤ£éĩĮ": 4865,
      "è§Ĩä¸º": 4866,
      "åį¢": 4867,
      "æĿĤå¿Ĺ": 4868,
      "åľ°ä¸ĭ": 4869,
      "åıł": 4870,
      "çĶ¨äºº": 4871,
      "æ´»æĢ§": 4872,
      "æĹ¶åĪ»": 4873,
      "éģĹåĿĢ": 4874,
      "åĪ¶çļĦ": 4875,
      "èĢĥåı¤": 4876,
      "åħ±äº§": 4877,
      "å¸¦çĿĢ": 4878,
      "Ġä¸İ": 4879,
      "æľ´": 4880,
      "æ¬º": 4881,
      "ä¾µæĿĥ": 4882,
      "ä¸Ģå¸¦": 4883,
      "èĩŃ": 4884,
      "åįľ": 4885,
      "æĭĸ": 4886,
      "æºĲäºİ": 4887,
      "æ¸Ĭ": 4888,
      "åĮºåĿĹéĵ¾": 4889,
      "ä»·åĢ¼è§Ĥ": 4890,
      "æł¡éķ¿": 4891,
      "åĨ²åĩ»": 4892,
      "æ°ĳåĽ½": 4893,
      "è½¬è®©": 4894,
      "é«ĺéĢŁ": 4895,
      "éħ¬": 4896,
      "åįĵ": 4897,
      "æĸĩæľ¬": 4898,
      "ä¸Ļ": 4899,
      "ä¸Ģç³»åĪĹ": 4900,
      "çĨĬ": 4901,
      "åĪĨç¦»": 4902,
      "ç£·": 4903,
      "æ¸´": 4904,
      "åĪĨæķ°": 4905,
      "åįĹåĮĹ": 4906,
      "æĦŁåĨĴ": 4907,
      "ä¼łè¾ĵ": 4908,
      "çļĦæĢĿæĥ³": 4909,
      "åį¦": 4910,
      "æĹłäºº": 4911,
      "ç¡«": 4912,
      "çĶŁåĬ¨": 4913,
      "å¿ħè¦ģçļĦ": 4914,
      "æ¯ıæĹ¥": 4915,
      "èı²": 4916,
      "åı¯éĿł": 4917,
      "è§£æŀĲ": 4918,
      "å¤ļåħĥ": 4919,
      "èĩªä¿¡": 4920,
      "æĮ¤": 4921,
      "çī¹å®ļ": 4922,
      "çłĤ": 4923,
      "çļĦæķĪæŀľ": 4924,
      "åĪĳäºĭ": 4925,
      "è¡į": 4926,
      "æľĢä½³": 4927,
      "ä¼ĺè´¨": 4928,
      "å®ŀåĬĽ": 4929,
      "çİĽ": 4930,
      "çĤ¹çļĦ": 4931,
      "å¤©åľ°": 4932,
      "çŃīçº§": 4933,
      "èĪªç©º": 4934,
      "å¯¹åħ¶": 4935,
      "æīĢè°ĵçļĦ": 4936,
      "ç»ıæµİçļĦ": 4937,
      "è¿Ļä¸¤": 4938,
      "åĨĻçļĦ": 4939,
      "åĬĽåº¦": 4940,
      "æ¯ĶèµĽ": 4941,
      "çļĦæ²»çĸĹ": 4942,
      "æĽ´æĸ°": 4943,
      "ity": 4944,
      "è¾Ĳ": 4945,
      "è®¤åı¯": 4946,
      "éĢļéģĵ": 4947,
      "çļĦæĸĩåĮĸ": 4948,
      "å®ŀéªĮå®¤": 4949,
      "ä¹°åįĸ": 4950,
      "å·®åĪ«": 4951,
      "ä¸ŃåĽ½äºº": 4952,
      "å·®è·Ŀ": 4953,
      "ç§©åºı": 4954,
      "Ġæĺ¯": 4955,
      "æŀ¢": 4956,
      "éľ¸": 4957,
      "æ¸ħæľĿ": 4958,
      "2010": 4959,
      "ç§įç±»": 4960,
      "çŃĽ": 4961,
      "æ±Łèĭı": 4962,
      "æĺŃ": 4963,
      "å¹¶åıĳ": 4964,
      "åĩºåı°": 4965,
      "åľ¨ä¸Ģ": 4966,
      "éĺ³åħī": 4967,
      "ä¸Ĭæľī": 4968,
      "æģ¨": 4969,
      "åıĤæķ°": 4970,
      "è¯ģä¹¦": 4971,
      "èĭ±éĽĦ": 4972,
      "åľ°éĿ¢": 4973,
      "æ¡Ĩæŀ¶": 4974,
      "å·¡": 4975,
      "åģ·": 4976,
      "åĸĦäºİ": 4977,
      "åı¯ä»¥éĢļè¿ĩ": 4978,
      "éľį": 4979,
      "åŃķå¦ĩ": 4980,
      "æĦıå¿Ĺ": 4981,
      "ä¸įå¾Ĺä¸į": 4982,
      "ĠåĴĮ": 4983,
      "æľ¬æĿ¥": 4984,
      "ä¿¡ä»»": 4985,
      "æ·Ģ": 4986,
      "è¿ĩå¤ļ": 4987,
      "è¶ħè¶Ĭ": 4988,
      "æĢ¨": 4989,
      "åīįåĲİ": 4990,
      "é¼İ": 4991,
      "åŃ£èĬĤ": 4992,
      "æ¸ħæ´ģ": 4993,
      "å§Ķæīĺ": 4994,
      "ver": 4995,
      "å±ŀæĢ§": 4996,
      "æĹ¶ä»£çļĦ": 4997,
      "æľŁéĻĲ": 4998,
      "ä½ľå®¶": 4999,
      "æĪĲåĬŁçļĦ": 5000,
      "æĭĴç»Ŀ": 5001,
      "æª": 5002,
      "èĤĽ": 5003,
      "è¯¾æĸĩ": 5004,
      "èĥľåĪ©": 5005,
      "æľºåĻ¨äºº": 5006,
      "éħµ": 5007,
      "åĪ¶åĵģ": 5008,
      "éļ¶": 5009,
      "ç¼ºå°ĳ": 5010,
      "éĻĢ": 5011,
      "åİŁæĸĻ": 5012,
      "ä¸¾è¡Į": 5013,
      "æĭ¨": 5014,
      "çĶ²çĬ¶": 5015,
      "äº§çĶŁäºĨ": 5016,
      "æ£ī": 5017,
      "ä»¥æŃ¤": 5018,
      ":ãĢĬ": 5019,
      "å©ļå§»": 5020,
      "åħ½": 5021,
      "åįģä¸ī": 5022,
      "åĽ¾ä¹¦": 5023,
      "åĮĹæĸ¹": 5024,
      "å·²æľī": 5025,
      "é»ı": 5026,
      "2008": 5027,
      "å¹²éĥ¨": 5028,
      "åĮħè£ħ": 5029,
      "çªĦ": 5030,
      "äº©": 5031,
      "ph": 5032,
      "èĩĤ": 5033,
      "çĹķ": 5034,
      "33": 5035,
      "æĺ¥ç§ĭ": 5036,
      "èĢĥæł¸": 5037,
      "çĶŁèĤ²": 5038,
      "åįĩé«ĺ": 5039,
      "ä¸¢": 5040,
      "åĲĪæł¼": 5041,
      "æĸ¯åĿ¦": 5042,
      "æĻĴ": 5043,
      "èĨ¨": 5044,
      "æ³¨å°Ħ": 5045,
      "åºŀ": 5046,
      "ind": 5047,
      "æĿĥå¨ģ": 5048,
      "çļĦéľĢæ±Ĥ": 5049,
      "åıĳåĩº": 5050,
      "çľĭæ³ķ": 5051,
      "65": 5052,
      "åıĳçĶŁäºĨ": 5053,
      "å¤§ä¼ļ": 5054,
      "æ²Ī": 5055,
      "çİ°çĬ¶": 5056,
      "æµģéĢļ": 5057,
      "æĭħä»»": 5058,
      "æĩĤå¾Ĺ": 5059,
      "ç½ĳä¸Ĭ": 5060,
      "èĢĮå·²": 5061,
      "å®ĺåĳĺ": 5062,
      "ä½¿åħ¶": 5063,
      "æīĵéĢł": 5064,
      "èĢģå¸ĪçļĦ": 5065,
      "åľ°åĮºçļĦ": 5066,
      "ä¸įéľĢè¦ģ": 5067,
      "å¹¿å·ŀ": 5068,
      "æĪ¿äº§": 5069,
      "ç¿¼": 5070,
      "ess": 5071,
      "ma": 5072,
      "Ġfor": 5073,
      "çŃ¾è®¢": 5074,
      "åĲ¾": 5075,
      "åĽ¾åĥı": 5076,
      "å¥¹çļĦ": 5077,
      "èį¯åĵģ": 5078,
      "æĻ¨": 5079,
      "Ġä½Ĩæĺ¯": 5080,
      "äºĭåĬ¡": 5081,
      "åį°è±¡": 5082,
      "æłĵ": 5083,
      "åĪ°è¾¾": 5084,
      "èĥ½åĲ¦": 5085,
      "çļĦåĬŁèĥ½": 5086,
      "ĠéĢļè¿ĩ": 5087,
      "éĢ¼": 5088,
      "æī¿è®¤": 5089,
      "çļĦæľī": 5090,
      "Ġcon": 5091,
      "85": 5092,
      "åīĸ": 5093,
      "ä¼ĺåħĪ": 5094,
      "çħ§çīĩ": 5095,
      "è¾ĥä½İ": 5096,
      "æ°ĽåĽ´": 5097,
      "å¡ĳæĸĻ": 5098,
      "æľįåĬ¡åĻ¨": 5099,
      "èµ°åĬ¿": 5100,
      "åįķçº¯": 5101,
      "éļıæĹ¶": 5102,
      "è½»æĿ¾": 5103,
      "ä¸įå¼Ģ": 5104,
      "ä»¶äºĭ": 5105,
      "ä»ĸè¯´": 5106,
      "çŁ©": 5107,
      "æ¶Īæ¯Ĵ": 5108,
      "æĺĨ": 5109,
      "çŁ¥è¯ĨçļĦ": 5110,
      "cl": 5111,
      "å¤«å¦»": 5112,
      "ç¤ºèĮĥ": 5113,
      "ç½Ĺé©¬": 5114,
      "å»ºéĢł": 5115,
      "äººåĴĮ": 5116,
      "çĶ»éĿ¢": 5117,
      "æŀ¯": 5118,
      "ç«Ń": 5119,
      "ä¸įä¹ħ": 5120,
      "é¦Ī": 5121,
      "å¤ļäºĨ": 5122,
      "ä¸ľåįĹ": 5123,
      "æ¶Į": 5124,
      "æ¼Ĥ": 5125,
      "åłµ": 5126,
      "ç¼ºéĻ·": 5127,
      "æĥ©": 5128,
      "æĺ¯ä¸ºäºĨ": 5129,
      "ç»ıæµİåıĳå±ķ": 5130,
      "è¾Ĳå°Ħ": 5131,
      "å²ģçļĦ": 5132,
      "æĿ¥åĪ°": 5133,
      "çĶ¨èį¯": 5134,
      "å¤ªå¹³": 5135,
      "åİ»å¹´": 5136,
      "è¯¸èĳĽäº®": 5137,
      "èµ·äºĨ": 5138,
      "åĲĪçĲĨçļĦ": 5139,
      "è¿Ļä½į": 5140,
      "ä¸»è¦ģæľī": 5141,
      "ä¹¾éļĨ": 5142,
      "çĶ²çĬ¶èħº": 5143,
      "åĪĿæŃ¥": 5144,
      "éŀĭ": 5145,
      "çĸ®": 5146,
      "åıĺéĿ©": 5147,
      "æĸ°åŀĭ": 5148,
      "æ¼ł": 5149,
      "æĻķ": 5150,
      "ä»Ķç»Ĩ": 5151,
      "ĠéļıçĿĢ": 5152,
      "åĪĿä¸Ń": 5153,
      "gdp": 5154,
      "è¥¿åĮĹ": 5155,
      "åĲĪå¹¶": 5156,
      "æ¦ľ": 5157,
      "æĬĵä½ı": 5158,
      "ä¸»å¸Ń": 5159,
      "åĮºçļĦ": 5160,
      "èĨĢ": 5161,
      "éĤĢ": 5162,
      "æĴ°": 5163,
      "ç§įåŃĲ": 5164,
      "cr": 5165,
      "æĶ¾æĿ¾": 5166,
      "ew": 5167,
      "è¿ĺåľ¨": 5168,
      "èµĲ": 5169,
      "åİī": 5170,
      "éĢĤçĶ¨äºİ": 5171,
      "çŃīäºİ": 5172,
      "ç¾İåĽ½çļĦ": 5173,
      "å¢ŀéĢŁ": 5174,
      "æĽ´æľī": 5175,
      "åĴ¸": 5176,
      "å®ŀè´¨": 5177,
      "tr": 5178,
      "ç¨İåĬ¡": 5179,
      "çļĦé£Łçī©": 5180,
      "éĿ¢åīį": 5181,
      "åıĶ": 5182,
      "æĻ®åıĬ": 5183,
      "è®¿éĹ®": 5184,
      "å®¡æŁ¥": 5185,
      "åĲ¸çĥŁ": 5186,
      "èĢģå¹´": 5187,
      "æ°Ķä½ĵ": 5188,
      "åĩłç§į": 5189,
      "æīĵåĩ»": 5190,
      "æ¬ł": 5191,
      "åľ³": 5192,
      "åĲĪæĪĲ": 5193,
      "Ġpro": 5194,
      "åĲĮæĦı": 5195,
      "åĩºåİ»": 5196,
      "å¯Ĩåº¦": 5197,
      "å±±è¥¿": 5198,
      "åıĳçĶŁçļĦ": 5199,
      "å®¶éĩĮ": 5200,
      "å§Ĳ": 5201,
      "æĹ¶æľŁçļĦ": 5202,
      "ä¹ĥèĩ³": 5203,
      "åĪĿæľŁ": 5204,
      "å¤§ä¼Ĺ": 5205,
      "å¯¹è¯Ŀ": 5206,
      "å®¡ç¾İ": 5207,
      "æĪĲä¸ºäºĨ": 5208,
      "çļĦä¼ģä¸ļ": 5209,
      "ä¸Ģé¡¹": 5210,
      "åľ¨ä¸Ģä¸ª": 5211,
      "Ġde": 5212,
      "åĲ«ä¹ī": 5213,
      "ä½ıå®ħ": 5214,
      "å¯¿åĳ½": 5215,
      "æµģæĦŁ": 5216,
      "ä¿¡ä»°": 5217,
      "æĻļä¸Ĭ": 5218,
      "ä¸įå®ľ": 5219,
      "çļĦè§Ĵåº¦": 5220,
      "çī©åĵģ": 5221,
      "å°ĨæĿ¥": 5222,
      "åıĪæľī": 5223,
      "äºļæ´²": 5224,
      "ç´łåħ»": 5225,
      "æ·±åľ³": 5226,
      "æ£®æŀĹ": 5227,
      "ä¼ļå¯¼èĩ´": 5228,
      "åīįéĿ¢": 5229,
      "è¢«åĳĬ": 5230,
      "åħ¶ä¸ŃçļĦ": 5231,
      "ç¦»åŃĲ": 5232,
      "åĩ¯": 5233,
      "çİ°éĩĳ": 5234,
      "ç®Ń": 5235,
      "åįģåħŃ": 5236,
      "ä¸Ģå®¶": 5237,
      "ä¸ºæŃ¤": 5238,
      "ly": 5239,
      "å¤·": 5240,
      "åĢºæĿĥ": 5241,
      "ç«ĭæ³ķ": 5242,
      "åįķåħĥ": 5243,
      "é¢Ħè®¡": 5244,
      "å½¢çĬ¶": 5245,
      "åŃ¦ä½į": 5246,
      "æµ©": 5247,
      "åĸĺ": 5248,
      "åĩºçİ°çļĦ": 5249,
      "åįĬå¹´": 5250,
      "å¤ĦçļĦ": 5251,
      "æ¨¡æĭŁ": 5252,
      "èĭ¥å¹²": 5253,
      "åħ¬åĽŃ": 5254,
      "ç»µ": 5255,
      "2014": 5256,
      "2012": 5257,
      "æĶ¶èİ·": 5258,
      "æľĢåĪĿ": 5259,
      "ç¡ķå£«": 5260,
      "cd": 5261,
      "çļĦæĤ£èĢħ": 5262,
      "æĸ°çĶŁ": 5263,
      "äººä»¬çļĦ": 5264,
      "åĲĦé¡¹": 5265,
      "ä¼ĺçĤ¹": 5266,
      "åĬ³åĬ¨èĢħ": 5267,
      "èĤ¥èĥĸ": 5268,
      "ä¸Ĭè¯¾": 5269,
      "æ²«": 5270,
      "2011": 5271,
      "ä¸Ńåįİæ°ĳæĹı": 5272,
      "å¢ŀåĬłäºĨ": 5273,
      "ä¸Ī": 5274,
      "æĻºåĬĽ": 5275,
      "ç®¡çĲĨçļĦ": 5276,
      "åĳ½è¿Ĳ": 5277,
      "èļĢ": 5278,
      "éĤ£å°±æĺ¯": 5279,
      "è®²è§£": 5280,
      "å°ģå»º": 5281,
      "è®¸åı¯": 5282,
      "å¢ŀå¤ļ": 5283,
      "æıĲåĪ°": 5284,
      "ĠåĽłæŃ¤": 5285,
      "å°½åı¯èĥ½": 5286,
      "åĹ½": 5287,
      "ä¸īè§Ĵ": 5288,
      "è¿Ī": 5289,
      "å°ļæľª": 5290,
      "åĬŁæķĪ": 5291,
      "éĺŁä¼į": 5292,
      "åıĳæĢ§": 5293,
      "çķı": 5294,
      "è¯´æĺ¯": 5295,
      "æĳĦå½±": 5296,
      "åħ¬åħĥåīį": 5297,
      "æĺı": 5298,
      "æĴĴ": 5299,
      "å¸¦æľī": 5300,
      "è¿ľè¿ľ": 5301,
      "ç®Ģç§°": 5302,
      "çĬ¬": 5303,
      "çĲĨè´¢": 5304,
      "æīĭæ³ķ": 5305,
      "çĹ°": 5306,
      "å¥ł": 5307,
      "ä¸ĢåĲį": 5308,
      "åį«æĺŁ": 5309,
      "å¤§éĻĨ": 5310,
      "çķľ": 5311,
      "è¾ĵåĩº": 5312,
      "æ¨¡åĿĹ": 5313,
      "æľĢéĩįè¦ģçļĦ": 5314,
      "èĪŁ": 5315,
      "æľ¬äºº": 5316,
      "çº¦æĿŁ": 5317,
      "å¼Ĺ": 5318,
      "ç¨»": 5319,
      "æ¢Ĺ": 5320,
      "å¾ģæĶ¶": 5321,
      "è¾Ł": 5322,
      "è£ħå¤ĩ": 5323,
      "å¤§è§Ħæ¨¡": 5324,
      "æīĢéľĢ": 5325,
      "æŁı": 5326,
      "æĿŃ": 5327,
      "èµģ": 5328,
      "é¢ģ": 5329,
      "è®©ä»ĸ": 5330,
      "æĭĵå±ķ": 5331,
      "é¥¼": 5332,
      "åĪĺå¤ĩ": 5333,
      "å¨ĺ": 5334,
      "çº·çº·": 5335,
      "åįķä¸Ģ": 5336,
      "çĺ¦": 5337,
      "éķ¿æ±Ł": 5338,
      "åı¤äºº": 5339,
      "æĬµæĬĹ": 5340,
      "è´¬": 5341,
      "åħ¬è·¯": 5342,
      "39": 5343,
      "éĥ½æ²¡æľī": 5344,
      "çļĦä¸įåĲĮ": 5345,
      "èĭį": 5346,
      "åħ³èģĶ": 5347,
      "ht": 5348,
      "è®¤è¯ģ": 5349,
      "åįģåĽĽ": 5350,
      "å¤¸": 5351,
      "çĽĳæİ§": 5352,
      "ä¸»ç®¡": 5353,
      "çĥŃæĥħ": 5354,
      "éªĮè¯ģ": 5355,
      "ĠéĤ£ä¹Ī": 5356,
      "çħĮ": 5357,
      "ç§Łèµģ": 5358,
      "çłĶç©¶çļĦ": 5359,
      "æ¸ĹéĢı": 5360,
      "åĿĬ": 5361,
      "å©Ĩ": 5362,
      "è¿Ľå±ķ": 5363,
      "è¯Ħè®º": 5364,
      "æĬĦ": 5365,
      "æŁ´": 5366,
      "ä¸ºä¾ĭ": 5367,
      "å¯ĵ": 5368,
      "åĲŀ": 5369,
      "è¯¸å¤ļ": 5370,
      "æĮĸæİĺ": 5371,
      "æĮº": 5372,
      "æİĴéĻ¤": 5373,
      "åĪ¶éĢłä¸ļ": 5374,
      "åį´æĺ¯": 5375,
      "å¹²æī°": 5376,
      "2013": 5377,
      "çĽ¸ç»ĵåĲĪ": 5378,
      "è´¾": 5379,
      "ç»ĻäºĨ": 5380,
      "æŃ¦åĻ¨": 5381,
      "éĤ£ç§į": 5382,
      "é¡ºåºı": 5383,
      "åĮºåĪĨ": 5384,
      "æł¼å±Ģ": 5385,
      "çĴĭ": 5386,
      "æ³½ä¸ľ": 5387,
      "ä¸įå¤ļ": 5388,
      "çłĶç©¶æīĢ": 5389,
      "é©¬åħĭæĢĿ": 5390,
      "2019": 5391,
      "ç§įç§į": 5392,
      "çĪ¬": 5393,
      "åģ¥åº·çļĦ": 5394,
      "çļĦä½¿çĶ¨": 5395,
      "æĥħèĬĤ": 5396,
      "åĴ³åĹ½": 5397,
      "ä¹¡æĿĳ": 5398,
      "Ġ12": 5399,
      "æ°ĳä¼Ĺ": 5400,
      "è£ķ": 5401,
      "å¤§åĬĽ": 5402,
      "çĶµåĬĽ": 5403,
      "åĪł": 5404,
      "çļĦæ¦Ĥå¿µ": 5405,
      "éĢĿ": 5406,
      "éļĭ": 5407,
      "æĹ¢çĦ¶": 5408,
      "åħļçļĦ": 5409,
      "éĶ¡": 5410,
      "åħĦå¼Ł": 5411,
      "åº¸": 5412,
      "æģ¼": 5413,
      "å¹²çĩ¥": 5414,
      "æŁĲä¸ª": 5415,
      "é«ĺè¾¾": 5416,
      "è¡¨æ¼Ķ": 5417,
      "ä»İæŃ¤": 5418,
      "2009": 5419,
      "è¿ĳä»£": 5420,
      "å®ŀè·µä¸Ń": 5421,
      "åıĽ": 5422,
      "çļĦå¤ĸ": 5423,
      "èĥº": 5424,
      "Ġä½ł": 5425,
      "åħħè¶³": 5426,
      "çļĦç®¡çĲĨ": 5427,
      "æ¯Ľæ³½ä¸ľ": 5428,
      "æĽ´å¥½åľ°": 5429,
      "å¤įåĲĪ": 5430,
      "æĦī": 5431,
      "çīĽå¥¶": 5432,
      "åħ±æľī": 5433,
      "æ½ľåľ¨": 5434,
      "äººæł¼": 5435,
      "æī©å±ķ": 5436,
      "è°ĥæİ§": 5437,
      "èĬĤæĹ¥": 5438,
      "æĿ¡ä»¶ä¸ĭ": 5439,
      "æ³ª": 5440,
      "è®©ä»ĸä»¬": 5441,
      "åĤ¨å¤ĩ": 5442,
      "ç«Ļåľ¨": 5443,
      "æ·®": 5444,
      "å¡ĺ": 5445,
      "æ»ļ": 5446,
      "è¾ħå¯¼": 5447,
      "ä¸Ńåįİäººæ°ĳ": 5448,
      "400": 5449,
      "ä¹Łä¸įæĺ¯": 5450,
      "çī²": 5451,
      "ä¹Łä¸įèĥ½": 5452,
      "åĲĳä¸Ĭ": 5453,
      "æ¹ĸåįĹ": 5454,
      "Ġç¾İåĽ½": 5455,
      "åĬĿ": 5456,
      "æĥŁ": 5457,
      "åĪĨè§£": 5458,
      "åĿĳ": 5459,
      "çĻ½èī²": 5460,
      "èĢģå¹´äºº": 5461,
      "çļĦçĽ®æłĩ": 5462,
      "åı¯æĮģç»Ń": 5463,
      "å¤®è¡Į": 5464,
      "ä¸¸": 5465,
      "å¤§åŃ¦çĶŁ": 5466,
      "èº«å¿ĥ": 5467,
      "art": 5468,
      "Ġle": 5469,
      "çļĦåĽ½å®¶": 5470,
      "ä¸»æĮģ": 5471,
      "åº·å¤į": 5472,
      "åī¥": 5473,
      "å¼ķåħ¥": 5474,
      "åģĩè®¾": 5475,
      "å¸ĮèħĬ": 5476,
      "èģĮè´£": 5477,
      "è¡Įæĥħ": 5478,
      "éĤĵ": 5479,
      "æ¦Ĥæĭ¬": 5480,
      "æĬ½è±¡": 5481,
      "çļĦæķħäºĭ": 5482,
      "åĶĲä»£": 5483,
      "éĿ¢åĲĳ": 5484,
      "äººæĸĩ": 5485,
      "å¼ºå¤§çļĦ": 5486,
      "çº³åħ¥": 5487,
      "åĴĮåıĳå±ķ": 5488,
      "æĬ¬": 5489,
      "æīŃ": 5490,
      "çļĦèīºæľ¯": 5491,
      "ä¸ĭäºĨ": 5492,
      "Ġon": 5493,
      "å¥Ī": 5494,
      "ç¿ł": 5495,
      "æĭħä¿Ŀ": 5496,
      "çĶŁåĳ½çļĦ": 5497,
      "æ»¡æĦı": 5498,
      "ç§°ä¹ĭä¸º": 5499,
      "åıĳåĬ¨æľº": 5500,
      "äºĳåįĹ": 5501,
      "åįģä¸Ģ": 5502,
      "ge": 5503,
      "æ³Ĭ": 5504,
      "å¥³åĦ¿": 5505,
      "çıŃä¸»ä»»": 5506,
      "éĶ¦": 5507,
      "èĩªæ²»": 5508,
      "æľīæ²¡æľī": 5509,
      "çĹħåĽł": 5510,
      "éĩįçļĦ": 5511,
      "å·©": 5512,
      "é¢ĳçİĩ": 5513,
      "48": 5514,
      "ä¸ŃåİŁ": 5515,
      "æµ·å¤ĸ": 5516,
      "Ġä¸Ĭ": 5517,
      "èĬĤå¥ı": 5518,
      "æĺ¯è¦ģ": 5519,
      "55": 5520,
      "ç©Ĩ": 5521,
      "æĽ´é«ĺ": 5522,
      "ä¸¾åĬŀ": 5523,
      "éģµå¾ª": 5524,
      "èĭ¹": 5525,
      "æ³¨æĦıåĬĽ": 5526,
      "æĥħå¢ĥ": 5527,
      "åįķçĭ¬": 5528,
      "ä¸ĩçī©": 5529,
      "å¤©æ´¥": 5530,
      "é©¬ä¸Ĭ": 5531,
      "çĸ¾çĹħçļĦ": 5532,
      "ps": 5533,
      "èĲ§": 5534,
      "è§£è¯»": 5535,
      "åŃĺæ¬¾": 5536,
      "åİĨåı²çļĦ": 5537,
      "çŃīå¾ħ": 5538,
      "Ġ11": 5539,
      "Ġu": 5540,
      "ä»¥ä¾¿": 5541,
      "ä¸įåıĺ": 5542,
      "èĬ¬": 5543,
      "èĬĤèĥ½": 5544,
      "ä¸įåĬ¨": 5545,
      "æŀģä¸º": 5546,
      "æ°¯": 5547,
      "æ´»è·ĥ": 5548,
      "çĶŁæ®ĸ": 5549,
      "æĹłéĻĲ": 5550,
      "éĥ½çŁ¥éģĵ": 5551,
      "Ġ18": 5552,
      "åŁ¹èĤ²": 5553,
      "äºĶå¹´": 5554,
      "Ġbe": 5555,
      "å¼Ĭ": 5556,
      "å±±æ°´": 5557,
      "æĪ¿åŃĲ": 5558,
      "æĢ»ä¹ĭ": 5559,
      "å¿ĥçĲĨåŃ¦": 5560,
      "åĭŁ": 5561,
      "è¡£æľį": 5562,
      "åŃ¦æł¡çļĦ": 5563,
      "ä¸Ģè·¯": 5564,
      "æŃ£å¸¸çļĦ": 5565,
      "ç»ıæµİåŃ¦": 5566,
      "æµĩ": 5567,
      "åı£èħĶ": 5568,
      "æ·ĭå·´": 5569,
      "åĪ©çļĦ": 5570,
      "ä¸ŃæīĢ": 5571,
      "pl": 5572,
      "çº¿ä¸Ĭ": 5573,
      "æľĿå»·": 5574,
      "æııåĨĻ": 5575,
      "Ġé«ĺ": 5576,
      "ä¸ĵä¸ļçļĦ": 5577,
      "æĲ¬": 5578,
      "äººç±»çļĦ": 5579,
      "æĮ¡": 5580,
      "èĲİ": 5581,
      "ä»¥å¤ĸ": 5582,
      "æľŁè´§": 5583,
      "æİĴåĲį": 5584,
      "é¸¿": 5585,
      "å¼¦": 5586,
      "çĪ±çļĦ": 5587,
      "æ²³åĮĹ": 5588,
      "å»¶éķ¿": 5589,
      "æ¸Ķ": 5590,
      "âħ": 5591,
      "åĪ«çļĦ": 5592,
      "çĮİ": 5593,
      "2020": 5594,
      "æİ¥çĿĢ": 5595,
      "ĠæŃ¤": 5596,
      "å¦¨": 5597,
      "çĮľ": 5598,
      "å¤ķ": 5599,
      "çİ°ä»£åĮĸ": 5600,
      "con": 5601,
      "è¾£": 5602,
      "éĽĮ": 5603,
      "çĽ®çļĦæĺ¯": 5604,
      "çĻ¾å¹´": 5605,
      "æĹ¶éĹ´çļĦ": 5606,
      "ä¼°è®¡": 5607,
      "æĵħ": 5608,
      "åĲĮæ¯Ķ": 5609,
      "æĪ¿ä»·": 5610,
      "å»¶ä¼¸": 5611,
      "çĸĹæķĪ": 5612,
      "åıĳçĶŁåľ¨": 5613,
      "ä¸¤æ¬¡": 5614,
      "éĻķè¥¿": 5615,
      "åħ³ç³»çļĦ": 5616,
      "ä¸ľæĸ¹": 5617,
      "çĶ»å®¶": 5618,
      "æ¡£æ¡Ī": 5619,
      "95": 5620,
      "åĩ½æķ°": 5621,
      "æĸĹäºī": 5622,
      "åº·çĨĻ": 5623,
      "ĠæĿİ": 5624,
      "ç®Ĺæ³ķ": 5625,
      "æľīéĻĲåħ¬åı¸": 5626,
      "éĺ´éĺ³": 5627,
      "æĶ¶ç¼©": 5628,
      "Ġåħ¶å®ŀ": 5629,
      "åįĴ": 5630,
      "åĸī": 5631,
      "è¯Ī": 5632,
      "æľīå®³": 5633,
      "èĭ¹æŀľ": 5634,
      "è¥¿åįĹ": 5635,
      "Ġçİĭ": 5636,
      "æĮ«": 5637,
      "èĴĭ": 5638,
      "åĩĮ": 5639,
      "ä¸¤èĢħ": 5640,
      "ĠåİŁæĸĩ": 5641,
      "ä½ĵè´¨": 5642,
      "æģ¶æĢ§": 5643,
      "ä¼Łå¤§": 5644,
      "è¿Ĳä½ľ": 5645,
      "èĨı": 5646,
      "ç¬¬äºĶ": 5647,
      "ä¸Ģæĸ¹": 5648,
      "çłĶç©¶çĶŁ": 5649,
      "çļĦæĦıæĢĿ": 5650,
      "è¡¥è´´": 5651,
      "éļıåĲİ": 5652,
      "æµģä¼ł": 5653,
      "int": 5654,
      "æŃ£å¦Ĥ": 5655,
      "æīĩ": 5656,
      "å¦¹": 5657,
      "åļ": 5658,
      "é¢ĨåŁŁçļĦ": 5659,
      "Ġwh": 5660,
      "ia": 5661,
      "ke": 5662,
      "æĥ¨": 5663,
      "ç¬Ķè®°": 5664,
      "å®¶äºº": 5665,
      "å±ĢéĻĲ": 5666,
      "ä¸ºä½ķ": 5667,
      "åįķè¯į": 5668,
      "æ··åĩĿ": 5669,
      "éģĵçļĦ": 5670,
      "åĭ¾": 5671,
      "å¥½äºĨ": 5672,
      "åĲ¬åĪ°": 5673,
      "å¾Īé«ĺ": 5674,
      "èĤĿèĦı": 5675,
      "è¤": 5676,
      "æĶ¯åĩº": 5677,
      "çļĦå¸Ĥåľº": 5678,
      "å·¥åİĤ": 5679,
      "èĬĿ": 5680,
      "Ġåħ³äºİ": 5681,
      "èĦĨ": 5682,
      "ĠçŃĶ": 5683,
      "éĨĽ": 5684,
      "Ġè¿Ļæĺ¯": 5685,
      "Ġä¸ºäºĨ": 5686,
      "å¿ĥéĩĮ": 5687,
      "èµ·ä¹ī": 5688,
      "æķ°æį®åºĵ": 5689,
      "çļĦç¾İ": 5690,
      "å¥½åĥı": 5691,
      "æĿ¥æºĲäºİ": 5692,
      "ç½¢": 5693,
      "ä»İå°ı": 5694,
      "éĦ": 5695,
      "Ġå¦Ĥ": 5696,
      "æ²³æµģ": 5697,
      "å¸ķ": 5698,
      "ä¿ĥä½¿": 5699,
      "åĢŁåĬ©": 5700,
      "å®ŀçĶ¨": 5701,
      "çļĦéĢīæĭ©": 5702,
      "ä¸įèµ·": 5703,
      "çļĦæł¸å¿ĥ": 5704,
      "èĨĿ": 5705,
      "åŁºç¡Ģä¸Ĭ": 5706,
      "Ġäºº": 5707,
      "æ¯ķä¸ļçĶŁ": 5708,
      "åįĹæĸ¹": 5709,
      "æĪĸèĢħæĺ¯": 5710,
      "å®£å¸ĥ": 5711,
      "å¾®çĶŁçī©": 5712,
      "æĺĤ": 5713,
      "çķ¸": 5714,
      "èĤ¡ä»½": 5715,
      "ä¸»è§Ĥ": 5716,
      "å±ĢéĿ¢": 5717,
      "ä¸įéĢĤ": 5718,
      "åıĸå¾ĹäºĨ": 5719,
      "æĹłæķĪ": 5720,
      "éģµå®Ī": 5721,
      "éĿĴæĺ¥": 5722,
      "éĺĢ": 5723,
      "è¡Ķ": 5724,
      "é£ĺ": 5725,
      "ä¸Ńæ¯Ĵ": 5726,
      "å¾®ä¿¡": 5727,
      "åŃĺåľ¨çĿĢ": 5728,
      "Ġè¿Ļä¸ª": 5729,
      "æĸ¥": 5730,
      "ç¥Ģ": 5731,
      "ort": 5732,
      "éĢ¸": 5733,
      "åĬ¨è½¦": 5734,
      "æĺİä»£": 5735,
      "åľ°çĤ¹": 5736,
      "ç¡ħ": 5737,
      "ä¹¦åĨĻ": 5738,
      "åĿĩè¡¡": 5739,
      "å¤§åľ°": 5740,
      "è§£éĻ¤": 5741,
      "åĲĮæĹ¶ä¹Ł": 5742,
      "æľīå¤ļ": 5743,
      "å¤ªå¤ļ": 5744,
      "æ£ĭ": 5745,
      "sh": 5746,
      "99": 5747,
      "ç°": 5748,
      "éģ£": 5749,
      "æº¢": 5750,
      "æ¶Īéĺ²": 5751,
      "ä¸ºäºº": 5752,
      "éĢīçĶ¨": 5753,
      "æĦŁçŁ¥": 5754,
      "çļĦä¸ĢäºĽ": 5755,
      "æī¿åıĹ": 5756,
      "ä¸Ńèį¯": 5757,
      "æ°®": 5758,
      "éĩī": 5759,
      "æ·ĺ": 5760,
      "ä¸¤å¹´": 5761,
      "ä¸Ľ": 5762,
      "æĹ¥åĨĽ": 5763,
      "æµªè´¹": 5764,
      "å¦¥": 5765,
      "æ¸ħä»£": 5766,
      "èĭ±æĸĩ": 5767,
      "åĪĴåĪĨ": 5768,
      "å®ŀçİ°äºĨ": 5769,
      "æľºçļĦ": 5770,
      "ml": 5771,
      "åıĳçļĦ": 5772,
      "ç²¾åĬĽ": 5773,
      "èĲ¥ä¸ļ": 5774,
      "çİ°æľī": 5775,
      "è¾ĥå¤§çļĦ": 5776,
      "å®°": 5777,
      "åĮĪ": 5778,
      "ä»¥åħį": 5779,
      "ä¸įè®º": 5780,
      "å¨±": 5781,
      "pe": 5782,
      "è¿Ŀåıį": 5783,
      "ĠçĶ¨": 5784,
      "æµģéĩı": 5785,
      "æĬĬå®ĥ": 5786,
      "æ´»åĬ¨ä¸Ń": 5787,
      "é¡¾å®¢": 5788,
      "ä¸Ģè¾¹": 5789,
      "æľīä¸ª": 5790,
      "èĲ¥éĢł": 5791,
      "åĲĪçī©": 5792,
      "å¼ºå¤§": 5793,
      "æĿ¡ä¾ĭ": 5794,
      "å¯»æ±Ĥ": 5795,
      "åıįé¦Ī": 5796,
      "åľ¨çº¿": 5797,
      "è¾ĥå¤ļ": 5798,
      "çĶ¨äººåįķä½į": 5799,
      "æľĢå¤ļ": 5800,
      "åıĪç§°": 5801,
      "æĲľç´¢": 5802,
      "ç¦½": 5803,
      "æĬ«": 5804,
      "ä»£æĽ¿": 5805,
      "åĽĽå¤§": 5806,
      "ä¸įè§ģ": 5807,
      "èī³": 5808,
      "åħįè´¹": 5809,
      "åĳķ": 5810,
      "196": 5811,
      "å¥½å¤Ħ": 5812,
      "çĭ¼": 5813,
      "èĥļ": 5814,
      "ç§ĺå¯Ĩ": 5815,
      "è¿ĩäºĨ": 5816,
      "åĵĢ": 5817,
      "çļĦæłĩåĩĨ": 5818,
      "ç¥ł": 5819,
      "éĩĳèŀįæľºæŀĦ": 5820,
      "è·¯å¾Ħ": 5821,
      "æĦģ": 5822,
      "æŀļ": 5823,
      "ç¥¸": 5824,
      "ä½¿äºº": 5825,
      "æĪĳåľ¨": 5826,
      "åľ°è¯´": 5827,
      "åĪĺéĤ¦": 5828,
      "æ°Ķç®¡": 5829,
      "ä¸Ńåįİäººæ°ĳåħ±åĴĮåĽ½": 5830,
      "èĮİ": 5831,
      "act": 5832,
      "èĢĢ": 5833,
      "åīįæıĲ": 5834,
      "éĩĳé¢Ŀ": 5835,
      "è®¤åĲĮ": 5836,
      "ä¸ªäººçļĦ": 5837,
      "«çĹ": 5838,
      "åĽŀå½Ĵ": 5839,
      "ä¸īåĽ½": 5840,
      "èŁ": 5841,
      "å¸¦æĿ¥äºĨ": 5842,
      "ä»²è£ģ": 5843,
      "çĽĪåĪ©": 5844,
      "ä¸ºä¸Ģ": 5845,
      "çļĦç¬¬ä¸Ģ": 5846,
      "ç»Ħç»ĩçļĦ": 5847,
      "æĺ¯å¾Ī": 5848,
      "åı¬å¼Ģ": 5849,
      "æŁĲä¸Ģ": 5850,
      "éŃĶ": 5851,
      "åįģä¹Ŀ": 5852,
      "æĺ¯æĪĳä»¬": 5853,
      "ä¸įæĺĵ": 5854,
      "è¦ģæĥ³": 5855,
      "æĶ¿æĿĥ": 5856,
      "åĶĲæľĿ": 5857,
      "æĸ°åħ´": 5858,
      "èĨ¨èĥĢ": 5859,
      "ä¼ĹçĶŁ": 5860,
      "çİ¯å¢ĥçļĦ": 5861,
      "åĨħå¤ĸ": 5862,
      "æĭįæĳĦ": 5863,
      "åıĳçĥŃ": 5864,
      "å®ļäºĨ": 5865,
      "åĪļåĪļ": 5866,
      "æ··åĩĿåľŁ": 5867,
      "èĲĿ": 5868,
      "ç»©æķĪ": 5869,
      "çļĦåİŁåĪĻ": 5870,
      "å¤´çĹĽ": 5871,
      "åı¯çĶ¨": 5872,
      "è¯ŀçĶŁ": 5873,
      "ä¹¦ç±į": 5874,
      "åİĭè¿«": 5875,
      "çļĦåīįæıĲ": 5876,
      "ç½©": 5877,
      "æ³ķå®ļ": 5878,
      "Ġit": 5879,
      "çĶµè·¯": 5880,
      "ci": 5881,
      "æ±¡æ°´": 5882,
      "ä¸»å¯¼": 5883,
      "æĦıå¤§åĪ©": 5884,
      "çļĦå°±æĺ¯": 5885,
      "ä¹¦ä¸Ń": 5886,
      "æĹ±": 5887,
      "è¢ĸ": 5888,
      "å½¢çļĦ": 5889,
      "æģĲæĥ§": 5890,
      "èµ´": 5891,
      "å¿½çķ¥": 5892,
      "åħĳ": 5893,
      "å¹´åº¦": 5894,
      "è´¦æĪ·": 5895,
      "è¦ģåľ¨": 5896,
      "æľīæķĪåľ°": 5897,
      "å³¡": 5898,
      "ä¸§å¤±": 5899,
      "çªĿ": 5900,
      "éĿŀæ´²": 5901,
      "æĪĳåĽ½çļĦ": 5902,
      "éĵŃ": 5903,
      "åŁºç¡Ģè®¾æĸ½": 5904,
      "åħĥçĴĭ": 5905,
      "é¥²æĸĻ": 5906,
      "äººä¹ĭ": 5907,
      "ç²¥": 5908,
      "åıĸåĨ³": 5909,
      "è¿Ŀçº¦": 5910,
      "æīĵçł´": 5911,
      "åįĥå¹´": 5912,
      "ä¹Łä¸įä¼ļ": 5913,
      "ç¼ºçĤ¹": 5914,
      "åŀ«": 5915,
      "æİ©": 5916,
      "æĹ¶æľº": 5917,
      "æ»¥": 5918,
      "çĸ²åĬ³": 5919,
      "èºģ": 5920,
      "éŁ¦": 5921,
      "ä¼Ļä¼´": 5922,
      "ä½įçļĦ": 5923,
      "Ġen": 5924,
      "ä»¥å¾Ģ": 5925,
      "ç§ĳåŃ¦çļĦ": 5926,
      "æľīçĤ¹": 5927,
      "æķĻåŃ¦ä¸Ń": 5928,
      "çĽ®å½ķ": 5929,
      "å¤ªæŀģ": 5930,
      "å´©": 5931,
      "åįĳ": 5932,
      "åĪĨè£Ĥ": 5933,
      "åħĨ": 5934,
      "æ³³": 5935,
      "è®°å¾Ĺ": 5936,
      "æĪĳè®¤ä¸º": 5937,
      "é«ĺæ¸©": 5938,
      "ä¸įæĸŃåľ°": 5939,
      "ç¢Ĺ": 5940,
      "æľ±åħĥçĴĭ": 5941,
      "å¿ĥæĢģ": 5942,
      "ä»Ģä¹Īæł·çļĦ": 5943,
      "ä»¬çļĦ": 5944,
      "Ġèĩª": 5945,
      "æĦıå¤ĸ": 5946,
      "èįĨ": 5947,
      "æŀ¶æŀĦ": 5948,
      "çķĻåŃ¦": 5949,
      "èıĬ": 5950,
      "åģĩå¦Ĥ": 5951,
      "çļĦä»·åĢ¼": 5952,
      "ç²¾åŃĲ": 5953,
      "éļ¾é¢ĺ": 5954,
      "é¢Ĺç²Ĵ": 5955,
      "æŃ§": 5956,
      "å¤ĸæ±ĩ": 5957,
      "æħ°": 5958,
      "æ±īåŃĹ": 5959,
      "åŁºå±Ĥ": 5960,
      "èĶ¡": 5961,
      "éĩĩè´Ń": 5962,
      "Ġse": 5963,
      "åİ»ä¸ĸ": 5964,
      "è¿ĩæĿ¥": 5965,
      "ä¸įéĶĻ": 5966,
      "è¶³å¤ŁçļĦ": 5967,
      "åĲĬ": 5968,
      "ä¸Ģçīĩ": 5969,
      "æĿł": 5970,
      "å®Ŀå®ĿçļĦ": 5971,
      "Ġå¦Ĥä½ķ": 5972,
      "éĢ¢": 5973,
      "ç²ª": 5974,
      "ç©ºè°ĥ": 5975,
      "äººéĥ½": 5976,
      "éŁ©åĽ½": 5977,
      "æ³µ": 5978,
      "å±ķçİ°": 5979,
      "æī¿åĮħ": 5980,
      "Ġçİ°åľ¨": 5981,
      "åĽŀæĶ¶": 5982,
      "æıĲé«ĺäºĨ": 5983,
      "åĮĸåĴĮ": 5984,
      "ç»³": 5985,
      "ä¸İåħ¶": 5986,
      "å«Į": 5987,
      "èĽĩ": 5988,
      "ä¾¿ç§ĺ": 5989,
      "èĴĤ": 5990,
      "çļĦè¡¨çİ°": 5991,
      "åĪĨæķ£": 5992,
      "åĪ«äººçļĦ": 5993,
      "æĻ¯è§Ĥ": 5994,
      "ä¹Ķ": 5995,
      "èĤºçĤİ": 5996,
      "è¯´è¿ĩ": 5997,
      "å»Ĭ": 5998,
      "çļĦä¸ŃåĽ½": 5999,
      "ä¸įä¸Ĭ": 6000,
      "éĢłåŀĭ": 6001,
      "èģĮèĥ½": 6002,
      "åĬ³åĬ¨åĲĪåĲĮ": 6003,
      "ä¼łç»ŁæĸĩåĮĸ": 6004,
      "åŃ£åº¦": 6005,
      "æĹ©åľ¨": 6006,
      "æ¯Ķå¦Ĥè¯´": 6007,
      "æ¦Ĥçİĩ": 6008,
      "åıĸåĨ³äºİ": 6009,
      "æ¹ĺ": 6010,
      "é¢ĳç¹ģ": 6011,
      "çľŁçĲĨ": 6012,
      "åĵªä¸ª": 6013,
      "çļĦäººçĶŁ": 6014,
      "å¤įæĿĤçļĦ": 6015,
      "é¢Īæ¤İ": 6016,
      "çĤ¹åĩ»": 6017,
      "éľĢè¦ģçļĦ": 6018,
      "å»¶ç»Ń": 6019,
      "åıĺæĪĲäºĨ": 6020,
      "éĽĨæĪĲ": 6021,
      "åģ¥åħ¨": 6022,
      "ç¡¬ä»¶": 6023,
      "ç¹ģèį£": 6024,
      "å°±æ²¡æľī": 6025,
      "ç¬¦åı·": 6026,
      "è¯±åıĳ": 6027,
      "å·¥åķĨ": 6028,
      "åĢŁéī´": 6029,
      "åħ¨ä¸ĸçķĮ": 6030,
      "æµ´": 6031,
      "çķĻåľ¨": 6032,
      "çģµéŃĤ": 6033,
      "åĩºäºİ": 6034,
      "åĪĽæĦı": 6035,
      "åı¥åŃĲ": 6036,
      "ç¼ĵæħ¢": 6037,
      "ç´§å¯Ĩ": 6038,
      "ä¹ĭåľ°": 6039,
      "åħ¬çĽĬ": 6040,
      "å¸¦åĬ¨": 6041,
      "ä¸įæķ¢": 6042,
      "ä¸ºä¸Ńå¿ĥ": 6043,
      "èµ°è¿Ľ": 6044,
      "ä»·åĢ¼çļĦ": 6045,
      "è®°ä½ı": 6046,
      "çļĦéĩįè¦ģæĢ§": 6047,
      "çĭ±": 6048,
      "è¢«åĬ¨": 6049,
      "çĹħä¾ĭ": 6050,
      "å¤§æ°Ķ": 6051,
      "çĭ¬çī¹çļĦ": 6052,
      "æĶ¹éĿ©å¼ĢæĶ¾": 6053,
      "è¿ĺéľĢè¦ģ": 6054,
      "åħ¬å®ī": 6055,
      "å¤ļå¹´çļĦ": 6056,
      "åĨ¬åŃ£": 6057,
      "è®©æĪĳ": 6058,
      "æ£Ĵ": 6059,
      "è®©ä½ł": 6060,
      "ä¸Ģä»½": 6061,
      "åħ¨ä½ĵ": 6062,
      "æĭĺ": 6063,
      "ä¸ĩåĲ¨": 6064,
      "å°½å¿«": 6065,
      "åīĤéĩı": 6066,
      "è¯ģå®ŀ": 6067,
      "è¾¹ç¼ĺ": 6068,
      "åĩ¸": 6069,
      "å®¹éĩı": 6070,
      "æ°´ä¸Ń": 6071,
      "é¢Ħç®Ĺ": 6072,
      "å¹²é¢Ħ": 6073,
      "æ°´åĪĨ": 6074,
      "ä»ĸæĺ¯": 6075,
      "æķħéļľ": 6076,
      "è¿Ļä¸¤ä¸ª": 6077,
      "æ´Ĵ": 6078,
      "åı¯è°ĵ": 6079,
      "è½¬åĲĳ": 6080,
      "åĩºçİ°åľ¨": 6081,
      "åĲİéĿ¢": 6082,
      "åĩłåįģ": 6083,
      "è¯ķçĤ¹": 6084,
      "ass": 6085,
      "åı¤èĢģ": 6086,
      "é¹¿": 6087,
      "åĳ¨è¾¹": 6088,
      "çĪ±åĽ½": 6089,
      "æĪĲå¹´äºº": 6090,
      "æīĢè¯´çļĦ": 6091,
      "åĲĦä½į": 6092,
      "å¢ŀå¤§": 6093,
      "è§Ĩéĩİ": 6094,
      "æ²ĥ": 6095,
      "æ¨¡ä»¿": 6096,
      "éŃħ": 6097,
      "çĪĨçĤ¸": 6098,
      "çĪ±å¥½": 6099,
      "åĢŁæ¬¾": 6100,
      "Ġä½ľä¸º": 6101,
      "å¼ķé¢Ĩ": 6102,
      "Ġåı¦å¤ĸ": 6103,
      "ç¼´çº³": 6104,
      "åıĳå°Ħ": 6105,
      "Ġq": 6106,
      "å¸ĪèĮĥ": 6107,
      "æİĪæĿĥ": 6108,
      "46": 6109,
      "äººå¯¹": 6110,
      "æŀģåħ¶": 6111,
      "Ġ;": 6112,
      "åĬ«": 6113,
      "åĪ¤åĨ³": 6114,
      "å¹³éĿ¢": 6115,
      "æĢİä¹ĪåĬŀ": 6116,
      "ä¹ĭä¸Ĭ": 6117,
      "è®¤ä¸ºæĺ¯": 6118,
      "å¹¶åıĳçĹĩ": 6119,
      ")\"": 6120,
      "ai": 6121,
      "æĸ°é²ľ": 6122,
      "è¾±": 6123,
      "èģªæĺİ": 6124,
      "éĹ´æİ¥": 6125,
      "åıĳçİ°äºĨ": 6126,
      "åĨįçĶŁ": 6127,
      "åĻª": 6128,
      "ç²¾å½©": 6129,
      "åıĳçĹħçİĩ": 6130,
      "å»ºæĪĲ": 6131,
      "æĽ´å¤§": 6132,
      "ä¿¡æģ¯åĮĸ": 6133,
      "è¾¾æĪĲ": 6134,
      "æĦ¤": 6135,
      "ç¦»å©ļ": 6136,
      "çĶ·å¥³": 6137,
      "åį³å°Ĩ": 6138,
      "å¢ŀåĢ¼ç¨İ": 6139,
      "åĶ¤": 6140,
      "éĢĤå®ľ": 6141,
      "æ±ĩçİĩ": 6142,
      "ä¸įå¤§": 6143,
      "å¿ĥä¸Ń": 6144,
      "è¿Ļé¡¹": 6145,
      "çļĦè®¾è®¡": 6146,
      "èĤļ": 6147,
      "åĽŀæĬ¥": 6148,
      "å£¶": 6149,
      "è¾¾åĪ°äºĨ": 6150,
      "å¸¦é¢Ĩ": 6151,
      "æµĳ": 6152,
      "è¿ľç¦»": 6153,
      "éħ·": 6154,
      "èĦĵ": 6155,
      "æİ¥åı£": 6156,
      "å·©åĽº": 6157,
      "æ¿ĢçĥĪ": 6158,
      "ç¡®ç«ĭ": 6159,
      "éļıæĦı": 6160,
      "å±¡": 6161,
      "Ġå¼ł": 6162,
      "åĲĥé¥Ń": 6163,
      "éŁ§": 6164,
      "èħ»": 6165,
      "ä½ĵçİ°äºĨ": 6166,
      "æįĲ": 6167,
      "ra": 6168,
      "éĺ²æĬ¤": 6169,
      "å§ĳ": 6170,
      "å»ºç«ĭäºĨ": 6171,
      "åĬłæĭ¿": 6172,
      "çĦĬ": 6173,
      "çļĦçĬ¶æĢģ": 6174,
      "ä¹ĭæĹ¶": 6175,
      "çľĭè§ģ": 6176,
      "è®¤è¯ĨåĪ°": 6177,
      "èħ¹æ³»": 6178,
      "pa": 6179,
      "åĮ»å¸Ī": 6180,
      "å¸Ĥåľºä¸Ĭ": 6181,
      "åĨħèĨľ": 6182,
      "å¯¹åŃ©åŃĲ": 6183,
      "çģ¶": 6184,
      "è´«åĽ°": 6185,
      "å¹³æĸ¹ç±³": 6186,
      "çĸ¡": 6187,
      "Ġä¸ĢèĪ¬": 6188,
      "çļĦå®īåħ¨": 6189,
      "ä¼½": 6190,
      "Ġ15": 6191,
      "åĩºåľŁ": 6192,
      "åĤħ": 6193,
      "åĲİèĢħ": 6194,
      "æıĲäº¤": 6195,
      "ç¿°": 6196,
      "é£ŀè¡Į": 6197,
      "ä¸ĳ": 6198,
      "Ġå¤ļ": 6199,
      "çļĦçĹĩçĬ¶": 6200,
      "åŃ¦æľŁ": 6201,
      "æĿ¡æ¬¾": 6202,
      "ç²¹": 6203,
      "ob": 6204,
      "åİ»äºĨ": 6205,
      "ç¡¬åĮĸ": 6206,
      "ä¹Łå¾Ī": 6207,
      "èĮ¶åı¶": 6208,
      "å·¥äºº": 6209,
      "æİ¨åĩº": 6210,
      "ä¸įå¤ª": 6211,
      "æµ·åĨĽ": 6212,
      "ä¸įåĩº": 6213,
      "ç»ıæµİå¢ŀéķ¿": 6214,
      "å¯Įæľī": 6215,
      "æ±īè¯Ń": 6216,
      "åĩ¶": 6217,
      "çľī": 6218,
      "ä¼Łå¤§çļĦ": 6219,
      "æīĢèĩ´": 6220,
      "ine": 6221,
      "å®ł": 6222,
      "åĲĦçº§": 6223,
      "ä¸įåıĹ": 6224,
      "å¤§èĩ´": 6225,
      "èĥ½åĬĽåĴĮ": 6226,
      "éĻ·åħ¥": 6227,
      "éĹ·": 6228,
      "ç»Ļå¤§å®¶": 6229,
      "åİļçļĦ": 6230,
      "te": 6231,
      "ä¸įå½ĵ": 6232,
      "å®Įæķ´çļĦ": 6233,
      "ĠåİŁæĸĩåľ°åĿĢ": 6234,
      "ç½ķ": 6235,
      "com": 6236,
      "åĪ©æģ¯": 6237,
      "çļĦæĦŁè§ī": 6238,
      "åħ´å¥ĭ": 6239,
      "ĠåħŃ": 6240,
      "è¥¿å®ī": 6241,
      "æĻļæľŁ": 6242,
      "ä¸ºæŃ¢": 6243,
      "æİ¥æĶ¶": 6244,
      "Ġå½ĵçĦ¶": 6245,
      "åħĪå¤©": 6246,
      "èģĶçĽŁ": 6247,
      "æĹ¥åŃĲ": 6248,
      "èĥ½åľ¨": 6249,
      "è´µæĹı": 6250,
      "150": 6251,
      "åĬ¿åĬĽ": 6252,
      "åħĶ": 6253,
      "åħ¸åŀĭçļĦ": 6254,
      "å¼ķè¿Ľ": 6255,
      "åĳĢ": 6256,
      "ä»İä¸Ń": 6257,
      "56": 6258,
      "æ¡¶": 6259,
      "åĲĮæł·çļĦ": 6260,
      "åįµç®¡": 6261,
      "ä½ľçī©": 6262,
      "Ġcom": 6263,
      "è¾ĥé«ĺçļĦ": 6264,
      "çİīç±³": 6265,
      "æľºä½ĵ": 6266,
      "èŀįåħ¥": 6267,
      "åĺ±": 6268,
      "ä¾į": 6269,
      "çİ©åħ·": 6270,
      "2007": 6271,
      "çļĦæĦıä¹ī": 6272,
      "æĺ¯åı¯ä»¥": 6273,
      "çī©ä½ĵ": 6274,
      "æľŁå¾ħ": 6275,
      "èĬ¯çīĩ": 6276,
      "çĶµæºĲ": 6277,
      "èº«ä½ĵçļĦ": 6278,
      "æıĲä¾ĽçļĦ": 6279,
      "ä¼łæĦŁ": 6280,
      "åĨ¯": 6281,
      "ith": 6282,
      "æıĲåĢ¡": 6283,
      "æ¹ĸåĮĹ": 6284,
      "ĠæŃ¤å¤ĸ": 6285,
      "çĶ«": 6286,
      "ä¸Ģç¯ĩ": 6287,
      "å°ıäºİ": 6288,
      "ä¼ļä½¿": 6289,
      "éĴł": 6290,
      "½åŃĲ": 6291,
      "éĩįåºĨ": 6292,
      "ä¸Ģä»¶": 6293,
      "è¾ĵåįµç®¡": 6294,
      "èĭ¯": 6295,
      "ä¸ĵçĶ¨": 6296,
      "è½¬è½½": 6297,
      "æľįåĬ¡çļĦ": 6298,
      "éĢıæĺİ": 6299,
      "æĪĺåĽ½": 6300,
      "å¯Ĥ": 6301,
      "éģ®": 6302,
      "çĥ¯": 6303,
      "ç½Ĳ": 6304,
      "Ġex": 6305,
      "åīįæĻ¯": 6306,
      "ç»Ļä»ĸ": 6307,
      "çļĦéķ¿": 6308,
      "........": 6309,
      "åıĸä»£": 6310,
      "çĿ¡è§ī": 6311,
      "ä¸ºåŁºç¡Ģ": 6312,
      "mg": 6313,
      "æ¬²æľĽ": 6314,
      "åµĮ": 6315,
      "æĶ¿åºľçļĦ": 6316,
      "çķ´": 6317,
      "æīĢå¾Ĺç¨İ": 6318,
      "Ġhe": 6319,
      "äººåĬĽèµĦæºĲ": 6320,
      "æĬĴ": 6321,
      "çĩĥçĥ§": 6322,
      "æĬµæĬ¼": 6323,
      "é¥®çĶ¨": 6324,
      "è¹Ī": 6325,
      "åıĹçĽĬ": 6326,
      "åįłæľī": 6327,
      "ame": 6328,
      "è¯ķåĽ¾": 6329,
      "ç§ĳçĽ®": 6330,
      "ä¾µçĬ¯": 6331,
      "æº¯": 6332,
      "èĥĮåĲİ": 6333,
      "å¤§åŃ¦çļĦ": 6334,
      "æĮĩåįĹ": 6335,
      "éĢĢä¼ĳ": 6336,
      ")(": 6337,
      "é¥¿": 6338,
      "åĽºéĨĩ": 6339,
      "ç¬¼": 6340,
      "æĿ¡è§Ħå®ļ": 6341,
      "åĲĮæŃ¥": 6342,
      "ä¸įåºĶ": 6343,
      "è¾°": 6344,
      "æ¼Ķè®²": 6345,
      "æľīçĽĬ": 6346,
      "åĮł": 6347,
      "èĢģçĻ¾å§ĵ": 6348,
      "ä¸Ĭå¸Ŀ": 6349,
      "æ´»åĬĽ": 6350,
      "æļ´åĬĽ": 6351,
      "å¸¸çĶ¨": 6352,
      "å·²æĪĲä¸º": 6353,
      "å¸Ĳ": 6354,
      "è®²ç©¶": 6355,
      "é¢ł": 6356,
      "èħ¹éĥ¨": 6357,
      "åŁİä¹¡": 6358,
      "æĮģæľī": 6359,
      "ive": 6360,
      "ä»Ĺ": 6361,
      "æĢĢçĸĳ": 6362,
      "æķĻçłĶ": 6363,
      "å§ĭçļĩ": 6364,
      "åĽłåŃĲ": 6365,
      "ä¸»è¦ģçļĦ": 6366,
      "çļĦè®¤è¯Ĩ": 6367,
      "åĮĸçĸĹ": 6368,
      "ç¦ıå»º": 6369,
      "æ·±åĮĸ": 6370,
      "æĤ£æľī": 6371,
      "ä¸ªåĪ«": 6372,
      "æĪĳè§īå¾Ĺ": 6373,
      "ä¹łä¿Ĺ": 6374,
      "éħ®": 6375,
      "de": 6376,
      "çĩĥæĸĻ": 6377,
      "é¸¡èĽĭ": 6378,
      "å¹²åĩĢ": 6379,
      "æľ¯åĲİ": 6380,
      "è´µçļĦ": 6381,
      "all": 6382,
      "æºĥçĸ¡": 6383,
      "åĭ¿": 6384,
      "è¿ĳè§Ĩ": 6385,
      "åĿĩåĮĢ": 6386,
      "ä¹ĭéģĵ": 6387,
      "ä¸Ńå±±": 6388,
      "åħĭæľį": 6389,
      "èĢĮéĿŀ": 6390,
      "éļĻ": 6391,
      "è¿ĩæ¸¡": 6392,
      "çļĦåľ°": 6393,
      "å®¡è®¡": 6394,
      "ç¹ģæ®ĸ": 6395,
      "ä¸įåıĬ": 6396,
      "è¡Įä¸ļçļĦ": 6397,
      "æĪĳä»¬å°±": 6398,
      "è¿Ļç§įæĥħåĨµ": 6399,
      "çīº": 6400,
      "ä¼ļå¯¹": 6401,
      "ill": 6402,
      "åĵ¦": 6403,
      "åĿıæŃ»": 6404,
      "åħ±äº§åħļ": 6405,
      "ĠåĽłä¸º": 6406,
      "é»Ħæ²³": 6407,
      "Ġsh": 6408,
      "åįłæį®": 6409,
      "åĦĴå®¶": 6410,
      "ä¸Ģåıª": 6411,
      "ä¸»åĬĽ": 6412,
      "è´Łè´£äºº": 6413,
      "ç§»æ°ĳ": 6414,
      "çļĦéľĢè¦ģ": 6415,
      "å¾Ĺåĩº": 6416,
      "ok": 6417,
      "çĶ³æĬ¥": 6418,
      "æĿŃå·ŀ": 6419,
      "è¿Ļä¹Ł": 6420,
      "æİ¥ç§į": 6421,
      "ä¼´æľī": 6422,
      "è´º": 6423,
      "å¯¹æīĭ": 6424,
      "æĹłæķ°": 6425,
      "å½ĵä»Ĭ": 6426,
      "åħħçĶµ": 6427,
      "ç§¯æŀģæĢ§": 6428,
      "èµĭäºĪ": 6429,
      "ä½¿åŃ¦çĶŁ": 6430,
      "æľīè¶£": 6431,
      "èĬĤè¯¾": 6432,
      "ä¸įå¿ħ": 6433,
      "çĥŃéĩı": 6434,
      "ä¸īæĺ¯": 6435,
      "çłĶç©¶äººåĳĺ": 6436,
      "çļĦäº§åĵģ": 6437,
      "éħĴç²¾": 6438,
      "åŃ¦åİĨ": 6439,
      "çĭ®": 6440,
      "çŃĸåĪĴ": 6441,
      "ä¿¡æģ¯çļĦ": 6442,
      "éĩĩéĽĨ": 6443,
      "çķĮçļĦ": 6444,
      "éĢĬ": 6445,
      "æµģäº§": 6446,
      "æĢ»ç»Ł": 6447,
      "çļĦä¸Ģéĥ¨åĪĨ": 6448,
      "å¿ĥæĥħ": 6449,
      "åħ»çĶŁ": 6450,
      "åįģä¸ĥ": 6451,
      "ä¹¦è®°": 6452,
      "ä¸ĵæ³¨": 6453,
      "çīĪæľ¬": 6454,
      "çĹĶ": 6455,
      "éĺ²èĮĥ": 6456,
      "å¹¶æľª": 6457,
      "åľ¨å¤§": 6458,
      "çĶµåİĭ": 6459,
      "çīĻé½¿": 6460,
      "åĽ¾æ¡Ī": 6461,
      "è¿Ļæĺ¯ä¸Ģä¸ª": 6462,
      "éĻĮ": 6463,
      "èĪªå¤©": 6464,
      "åĪ¶çº¦": 6465,
      "å½Ĵçº³": 6466,
      "èĢĥèĻĳåĪ°": 6467,
      "é»Ħèī²": 6468,
      "è°¦": 6469,
      "çļĦçĲĨè§£": 6470,
      "ĠæľĢåĲİ": 6471,
      "å½¼æŃ¤": 6472,
      "å«ģ": 6473,
      "å¿ħé¡»è¦ģ": 6474,
      "44": 6475,
      "éľľ": 6476,
      "åŀĦ": 6477,
      "çļĦåºĶçĶ¨": 6478,
      "å¦Ĥæŀľæ²¡æľī": 6479,
      "çŁ¥è¯Ĩäº§æĿĥ": 6480,
      "å¨±ä¹Ĳ": 6481,
      "ä»İæĿ¥": 6482,
      "è¿ĶåĽŀ": 6483,
      "è¿ĽæĶ»": 6484,
      "æķĻå®¤": 6485,
      "æ¢¦æĥ³": 6486,
      "æĸ¼": 6487,
      "æľŁæľĽ": 6488,
      "è¿Ľè¡ĮçļĦ": 6489,
      "èĬĤçº¦": 6490,
      "åľ¨ç¾İåĽ½": 6491,
      "ç²¾åĩĨ": 6492,
      "æī®": 6493,
      "åĽĽå¹´": 6494,
      "å®ĭä»£": 6495,
      "äºĨå¾Īå¤ļ": 6496,
      "æĹ¥èµ·": 6497,
      "å¢ĥåĨħ": 6498,
      "æ³ķæ²»": 6499,
      "å¾Ĺå¤ļ": 6500,
      "æĽ´å¤§çļĦ": 6501,
      "å¼ĢåĲ¯": 6502,
      "æĺ¯ä¸º": 6503,
      "æķ²": 6504,
      "ä»ĭåħ¥": 6505,
      "éĢļé£İ": 6506,
      "ä¾Ŀçħ§": 6507,
      "èł": 6508,
      "å±ķè§Ī": 6509,
      "éĽĩ": 6510,
      "æīĭæĮĩ": 6511,
      "éķ¿åŁİ": 6512,
      "çłĶç©¶éĻ¢": 6513,
      "è¡¨çİ°åĩº": 6514,
      "ä¸Ĭä¸Ģ": 6515,
      "çīĪæĿĥ": 6516,
      "çīºçī²": 6517,
      "çļĦæĢģåº¦": 6518,
      "éĽį": 6519,
      "ä¸Ĭåİ»": 6520,
      "é¦ĸåħĪè¦ģ": 6521,
      "æ¬¡æķ°": 6522,
      "è¯įæ±ĩ": 6523,
      "çĹĴ": 6524,
      "èĲ½åĲİ": 6525,
      "åıĺæĽ´": 6526,
      "çļĦé£İ": 6527,
      "ä¸¤å¤§": 6528,
      "å§¿åĬ¿": 6529,
      "æ±ŁåįĹ": 6530,
      "å¦ĤåĲĮ": 6531,
      "æĽ´å®¹æĺĵ": 6532,
      "æĸĩä¸Ń": 6533,
      "äº¤åıī": 6534,
      "èĦ±ç¦»": 6535,
      "ä¸įåŃķ": 6536,
      "å¹ħåº¦": 6537,
      "æīĭç»Ń": 6538,
      "è§£åĨ³æĸ¹æ¡Ī": 6539,
      "æ³¡æ²«": 6540,
      "éĢĤå½ĵçļĦ": 6541,
      "çŃīçļĦ": 6542,
      "ä¿®å»º": 6543,
      "å¼ŁåŃĲ": 6544,
      "èİ·å¾ĹäºĨ": 6545,
      "æŀ£": 6546,
      "ç¼ĸç¨ĭ": 6547,
      "ä¸Ģæ®µæĹ¶éĹ´": 6548,
      "åĽŀå®¶": 6549,
      "çĽĴ": 6550,
      "å±ĤçļĦ": 6551,
      "Ġä»¥ä¸Ĭ": 6552,
      "åĴ¬": 6553,
      "éħįå¥Ĺ": 6554,
      "æĸĩèīº": 6555,
      "ç¦ıåĪ©": 6556,
      "è´§çī©": 6557,
      "åıĳéħµ": 6558,
      "äº§çī©": 6559,
      "è´Ŀå°Ķ": 6560,
      "ä¹¦çĶ»": 6561,
      "æĬĹæĹ¥": 6562,
      "å¤§èĩ£": 6563,
      "é¾Ł": 6564,
      "åı¤åħ¸": 6565,
      "å¦Ĥæŀľæĺ¯": 6566,
      "åĲİäºº": 6567,
      "led": 6568,
      "æĪıåī§": 6569,
      "è´ŀ": 6570,
      "ä¸ļç»©": 6571,
      "ä¹³æĪ¿": 6572,
      "éĥ¨ç½²": 6573,
      "è®ºåĿĽ": 6574,
      "åľ¨è¿Ļç§į": 6575,
      "æĤĶ": 6576,
      "é¥®æĸĻ": 6577,
      "æıĲåıĸ": 6578,
      "åŁºçĿ£": 6579,
      "åİŁæľ¬": 6580,
      "å¥ĸåĬ±": 6581,
      "Ġåħ¶": 6582,
      "ä»ĬåĲİ": 6583,
      "æĶ¾å°Ħ": 6584,
      "ff": 6585,
      "è¶ĬæĿ¥è¶Ĭå¤ļ": 6586,
      "åĽ½çİĭ": 6587,
      "æĥħæĻ¯": 6588,
      "ç§¦å§ĭçļĩ": 6589,
      "ä¸İæŃ¤": 6590,
      "èĶ½": 6591,
      "å·¥ç¨ĭå¸Ī": 6592,
      "åĵº": 6593,
      "å®Įç¾İ": 6594,
      "å¯¨": 6595,
      "é¥¥": 6596,
      "æ¯įä¹³": 6597,
      "42": 6598,
      "æĪĺå½¹": 6599,
      "ri": 6600,
      "çłĶè®¨": 6601,
      "éĿĸ": 6602,
      "å°ıåŃ©": 6603,
      "ĠèĻ½çĦ¶": 6604,
      "æ¯«æĹł": 6605,
      "æ±Łè¥¿": 6606,
      "æ°´å¹³çļĦ": 6607,
      "æİ¥ä¸ĭæĿ¥": 6608,
      "æľĿé²ľ": 6609,
      "å¤ªåŃĲ": 6610,
      "ä¸ŃæľĢ": 6611,
      "éħ¿": 6612,
      "æĢİæł·çļĦ": 6613,
      "åįıåĲĮ": 6614,
      "è¯Ŀé¢ĺ": 6615,
      "åĤ²": 6616,
      "åİĨä»£": 6617,
      "çĶ²éĨĽ": 6618,
      "æĦŁåıĹåĪ°": 6619,
      "å¸ĥç½®": 6620,
      "åİŁåŃĲ": 6621,
      "æıĲéĹ®": 6622,
      "çĥŃçĪ±": 6623,
      "è°ĥåĬ¨": 6624,
      "å¸ħ": 6625,
      "å·¾": 6626,
      "åĮĹå®ĭ": 6627,
      "120": 6628,
      "ment": 6629,
      "æī¿è¯º": 6630,
      "åīįæľŁ": 6631,
      "æķħæĦı": 6632,
      "è¡Įä¸ºçļĦ": 6633,
      "ä¸»æµģ": 6634,
      "ä»Ħ": 6635,
      "è¿Ļæł·ä¸Ģä¸ª": 6636,
      "Ġæ¸ħ": 6637,
      "è½°": 6638,
      "æıĲåĩºçļĦ": 6639,
      "ä¹°åħ¥": 6640,
      "ä¸įä¸Ģæł·": 6641,
      "æĹłçº¿": 6642,
      "å®¡åĪ¤": 6643,
      "æķĻèĤ²éĥ¨": 6644,
      "èĤºçĻĮ": 6645,
      "åİ»åģļ": 6646,
      "æİĴåĩº": 6647,
      "å·¥ä½ľä¸Ń": 6648,
      "49": 6649,
      "ä¸įä½ı": 6650,
      "çĳľ": 6651,
      "çĪ±æĥħ": 6652,
      "éĴ¾": 6653,
      "2005": 6654,
      "æŃ¦å¸Ŀ": 6655,
      "è¯¸ä¾¯": 6656,
      "åľ°ä¸Ĭ": 6657,
      "æ¶¯": 6658,
      "ä¿¡æģ¯æĬĢæľ¯": 6659,
      "è¥¿éĥ¨": 6660,
      "å°ģéĹŃ": 6661,
      "æľºéģĩ": 6662,
      "è¥¿èĹı": 6663,
      "é²ģè¿ħ": 6664,
      "ç®¡éģĵ": 6665,
      "è£ħä¿®": 6666,
      "å¼ķå¯¼åŃ¦çĶŁ": 6667,
      "åĲ¯åıĳ": 6668,
      "Ġä¸Ģä¸ª": 6669,
      "èĢĮæĪĲ": 6670,
      "åıĸæ¶Ī": 6671,
      "47": 6672,
      "ord": 6673,
      "ç»ĦæĪĲéĥ¨åĪĨ": 6674,
      "ä½Ĳ": 6675,
      "çļĦæ´»åĬ¨": 6676,
      "èĮĤ": 6677,
      "è·¯çº¿": 6678,
      "å¤Ħåľ¨": 6679,
      "Ġ16": 6680,
      "2006": 6681,
      "éķ¿å¤§": 6682,
      "åĪĩå®ŀ": 6683,
      "è¶Ĭå¤§": 6684,
      "é»ĳèī²": 6685,
      "èĻ¾": 6686,
      "æħĮ": 6687,
      "åį³ä¾¿": 6688,
      "ç¢§": 6689,
      "æľīä¸ĢäºĽ": 6690,
      "æŃ¦æ±ī": 6691,
      "åĳķåĲĲ": 6692,
      "çī©èģĶç½ĳ": 6693,
      "æĦıè¯ĨåĪ°": 6694,
      "çĶ¨äºĨ": 6695,
      "æħķ": 6696,
      "å¥³äºº": 6697,
      "å¦ĥ": 6698,
      "Ġè¿ĳ": 6699,
      "çļĦä¸ĸçķĮ": 6700,
      "å½Ń": 6701,
      "å¯¼èĩ´çļĦ": 6702,
      "éĺ¿æĭī": 6703,
      "çģ¸": 6704,
      "ang": 6705,
      "å¾ĹäºĨ": 6706,
      "æľªèĥ½": 6707,
      "æĽ²çº¿": 6708,
      "ä¹³èħºçĻĮ": 6709,
      "æ¯ħ": 6710,
      "åĪĳæ³ķ": 6711,
      "èĮĥçķ´": 6712,
      "æ¸Ĳæ¸Ĳ": 6713,
      "è®¾è®¡çļĦ": 6714,
      "æŃ¤æ¬¡": 6715,
      "çĶ¨éĢĶ": 6716,
      "åĲįè¯į": 6717,
      "ä¸´æĹ¶": 6718,
      "ä¼ļå½±åĵį": 6719,
      "æĺ¯æ²¡æľī": 6720,
      "çħİ": 6721,
      "çļĦåŃĺåľ¨": 6722,
      "ĠæĪĳåĽ½": 6723,
      "æļĤæĹ¶": 6724,
      "æĺ¯éĢļè¿ĩ": 6725,
      "è¯įè¯Ń": 6726,
      "çļĦåħī": 6727,
      "åį¿": 6728,
      "åı¯ä»¥çĶ¨": 6729,
      "ç§»æ¤į": 6730,
      "å¦Ħ": 6731,
      "æīģ": 6732,
      "åħ¹": 6733,
      "æµģåĬ¨æĢ§": 6734,
      "æ¡©": 6735,
      "æķ°é¢Ŀ": 6736,
      "ä¸ĵé¡¹": 6737,
      "æī¹åĪ¤": 6738,
      "æĺ¯åĲ¦æľī": 6739,
      "åĮĸåĲĪçī©": 6740,
      "äºĮå¹´": 6741,
      "æĶ¶è´Ń": 6742,
      "åħ¬å¼ı": 6743,
      "å¤įåĪ¶": 6744,
      "çªŁ": 6745,
      "é¢Ĥ": 6746,
      "æ±Ŀ": 6747,
      "Ġro": 6748,
      "äººå¿ĥ": 6749,
      "çŁ¥åĲį": 6750,
      "åŃ©åŃĲåľ¨": 6751,
      "éĶĮ": 6752,
      "æĬ¹": 6753,
      "æĬĹçĶŁç´ł": 6754,
      "å°¸": 6755,
      "äºĨä¸ŃåĽ½": 6756,
      "åĳĨ": 6757,
      "Ġä»ĸ": 6758,
      "ç«ŀäºīåĬĽ": 6759,
      "æĦŁåħ´è¶£": 6760,
      "ç»Īç«¯": 6761,
      "éķ¿å®ī": 6762,
      "éĴ©": 6763,
      "åı¦ä¸Ģç§į": 6764,
      "ard": 6765,
      "çļĦåı¯èĥ½æĢ§": 6766,
      "åı²ä¸Ĭ": 6767,
      "åįłæ¯Ķ": 6768,
      "è¡¡éĩı": 6769,
      "åıįå°Ħ": 6770,
      "çļĦä½įç½®": 6771,
      "æĢ»éĩı": 6772,
      "äºĶä¸ª": 6773,
      "çĶµæµģ": 6774,
      "æ¢³": 6775,
      "éļıä¹ĭ": 6776,
      "æķĻä¼ļ": 6777,
      "çŀ¬": 6778,
      "çļĦå¿ĥçĲĨ": 6779,
      "åĽ¾å½¢": 6780,
      "è¯¯åĮº": 6781,
      "çļĦè¯Ńè¨Ģ": 6782,
      "è½¨éģĵ": 6783,
      "98": 6784,
      "ç¥ĸåĽ½": 6785,
      "æĪĲéĥ½": 6786,
      "æ²»æĦĪ": 6787,
      "Ġç¬¬åĽĽ": 6788,
      "å¸ĸ": 6789,
      "æ¸ħéĻ¤": 6790,
      "çİĩä¸º": 6791,
      "pt": 6792,
      "é¢ĸ": 6793,
      "æĶĢ": 6794,
      "éĩĩè®¿": 6795,
      "çĽ¸åĲĮçļĦ": 6796,
      "æĺ¯å¦Ĥä½ķ": 6797,
      "ç¼ł": 6798,
      "æĿłæĿĨ": 6799,
      "ä¸Ģå¥Ĺ": 6800,
      "çŁ«": 6801,
      "å®ĺæĸ¹": 6802,
      "æįī": 6803,
      "åĽŀå¿Ĩ": 6804,
      "çĶµåŃĲåķĨåĬ¡": 6805,
      "ä¿¡æīĺ": 6806,
      "æ°ĶçļĦ": 6807,
      "å°ıåĦ¿": 6808,
      "éĢļè®¯": 6809,
      "æĤ£åĦ¿": 6810,
      "çĵ£": 6811,
      "so": 6812,
      "æ§½": 6813,
      "æĦŁè°¢": 6814,
      "èĪĨ": 6815,
      "è§£åĨ³éĹ®é¢ĺ": 6816,
      "åıĳåĬ¨": 6817,
      "å¯¼åĲĳ": 6818,
      "åľ¨åħ¶": 6819,
      "åŃ¦åĳĺ": 6820,
      "å¼Ģè®¾": 6821,
      "ä¸¤ä¾§": 6822,
      "å°±å¼Ģå§ĭ": 6823,
      "ä¸İåħ¶ä»ĸ": 6824,
      "190": 6825,
      "ç¥ŀç§ĺ": 6826,
      "å£°æĺİ": 6827,
      "å¤ıåŃ£": 6828,
      "68": 6829,
      "æ£ļ": 6830,
      "çļĦçĲĨè®º": 6831,
      "ä¸ĢåĿĹ": 6832,
      "åī¯ä½ľçĶ¨": 6833,
      "åĬłæĭ¿å¤§": 6834,
      "ä¸įå¯¹": 6835,
      "è¿Ļæ®µ": 6836,
      "æ£Ģå¯Ł": 6837,
      "çģ«çģ¾": 6838,
      "åĲı": 6839,
      "æĺİæ¸ħ": 6840,
      "æĶ¾å¤§": 6841,
      "ç¯®": 6842,
      "çļĦç¡®": 6843,
      "Ġco": 6844,
      "åĨħåĪĨæ³Į": 6845,
      "å°±æĺ¯è¦ģ": 6846,
      "æĪĲå¹´": 6847,
      "åĳ½é¢ĺ": 6848,
      "åľ¨æĪĳåĽ½": 6849,
      "ä¸Ĭçľĭ": 6850,
      "èµĦæºĲçļĦ": 6851,
      "åŀĦæĸŃ": 6852,
      "æĸĩäºº": 6853,
      "ç»ĨèĥŀçļĦ": 6854,
      "çĪ¶æ¯įçļĦ": 6855,
      "è¡·": 6856,
      "æĶ¹ä¸º": 6857,
      "ç¿ģ": 6858,
      "åĩĢåĮĸ": 6859,
      "è®ºè¿°": 6860,
      "ãĢĭ:\"": 6861,
      "ç¦¹": 6862,
      "è§Ĥä¼Ĺ": 6863,
      "çĹħçĲĨ": 6864,
      "éª¨å¤´": 6865,
      "è®¾å®ļ": 6866,
      "\")": 6867,
      "ç»ĻåŃ¦çĶŁ": 6868,
      "æĭįåįĸ": 6869,
      "å°ºå¯¸": 6870,
      "çļĦçĽ¸åħ³": 6871,
      "pr": 6872,
      "ç»Ŀå¤§å¤ļæķ°": 6873,
      "ä½¿åĳ½": 6874,
      "æĹ©å·²": 6875,
      "ç»¼åĲĪå¾ģ": 6876,
      "åİĭç¼©": 6877,
      "ä½ľä¸ºä¸Ģä¸ª": 6878,
      "æ¯ıåĳ¨": 6879,
      "ç»£": 6880,
      "ä¸ĭåįĪ": 6881,
      "ä¹Ĳè§Ĥ": 6882,
      "å¤ļåĲĥ": 6883,
      "iz": 6884,
      "å®ŀæĹ¶": 6885,
      "è¾ĥå°ĳ": 6886,
      "è¿Ļä¸ªæĹ¶åĢĻ": 6887,
      "å«©": 6888,
      "çļĦå¤©": 6889,
      "è´ŁåĢº": 6890,
      "æīĳ": 6891,
      "ä¸Ģåľº": 6892,
      "æ³¼": 6893,
      "äº²èĩª": 6894,
      "æ³ķåĪĻ": 6895,
      "éĵħ": 6896,
      "åĲĽåŃĲ": 6897,
      "éĩįéĩı": 6898,
      "äºīåıĸ": 6899,
      "åĲĪä¼Ļ": 6900,
      "çĪ½": 6901,
      "å¤Ħç½®": 6902,
      "å¤įåıĳ": 6903,
      "çĭ¬ç«ĭçļĦ": 6904,
      "åľ°åŁŁ": 6905,
      "å¹´åºķ": 6906,
      "è®²è¿°": 6907,
      "è¯Ĺè¯į": 6908,
      "ĠçĦ¶èĢĮ": 6909,
      "å®īå¾½": 6910,
      "ç¤¾äº¤": 6911,
      "å¸Ĥæ°ĳ": 6912,
      "èīºæľ¯å®¶": 6913,
      "æĶ¶åĪ°": 6914,
      "é©°": 6915,
      "äººä½ĵçļĦ": 6916,
      "ä»ĸä»¬åľ¨": 6917,
      "ä¸Ģåº§": 6918,
      "äººäºº": 6919,
      "èĩªçĦ¶çļĦ": 6920,
      "èĤ¾èĦı": 6921,
      "æļ´éľ²": 6922,
      "ç¡Ŀ": 6923,
      "äº§èĥ½": 6924,
      "è§ģåĪ°": 6925,
      "æĿ¡ä»¶çļĦ": 6926,
      "æĪĳå°±": 6927,
      "åı¯åĪĨä¸º": 6928,
      "éĢīé¡¹": 6929,
      "æĺ¯æĪĳåĽ½": 6930,
      "ĠçĶŁ": 6931,
      "ç»Ļä½ł": 6932,
      "ä¸ŃæľŁ": 6933,
      "åıĺåĬ¨": 6934,
      "åĨĽçļĦ": 6935,
      "åŁºæľ¬çļĦ": 6936,
      "çºłæŃ£": 6937,
      "å®¶åħ·": 6938,
      "èĥĨåĽºéĨĩ": 6939,
      "æıĲèµ·": 6940,
      "çī¹æ®ĬçļĦ": 6941,
      "ä¼ļä¸Ĭ": 6942,
      "ä¸Ĭå¸Ĥåħ¬åı¸": 6943,
      "æ´Ľéĺ³": 6944,
      "åıĺéĩı": 6945,
      "æĲı": 6946,
      "åĪĩéĻ¤": 6947,
      "å®¡æł¸": 6948,
      "å°Ĩåľ¨": 6949,
      "å±ł": 6950,
      "ä½ĵçİ°åľ¨": 6951,
      "ä¸Ģçº§": 6952,
      "çŃīåľ°": 6953,
      "ä»Ĭå¤©çļĦ": 6954,
      "å¥ĭæĸĹ": 6955,
      "èĨ³": 6956,
      "ä½łåı¯ä»¥": 6957,
      "ĠæľĪ": 6958,
      "æĹłæīĢ": 6959,
      "io": 6960,
      "å¤įåħ´": 6961,
      "èĥ±": 6962,
      "Ġä½ľèĢħ": 6963,
      "å¯¹åŃ¦çĶŁ": 6964,
      "å£«åħµ": 6965,
      "çļĦéĥ¨åĪĨ": 6966,
      "æ»¨": 6967,
      "åħ¥åŃ¦": 6968,
      "èĢĥçłĶ": 6969,
      "æ¨¡ç³Ĭ": 6970,
      "åį°åĪ·": 6971,
      "åı¯åľ¨": 6972,
      "åĿĩçº¿": 6973,
      "èĤĸ": 6974,
      "åĽ¢ä½ĵ": 6975,
      "è½¬åĮĸä¸º": 6976,
      "å¸¸è¯Ĩ": 6977,
      "æķ£æĸĩ": 6978,
      "åĲİä¸ĸ": 6979,
      "åħ¬æĸ¤": 6980,
      "ä½łä¼ļ": 6981,
      "å¡ĳéĢł": 6982,
      "å·¥ä½ľäººåĳĺ": 6983,
      "å¯¹æĬĹ": 6984,
      "app": 6985,
      "å°ıæľĭåıĭ": 6986,
      "éŃħåĬĽ": 6987,
      "ä¸Ńæĸĩ": 6988,
      "å½¢å®¹": 6989,
      "åĮĪå¥´": 6990,
      "ä»½é¢Ŀ": 6991,
      "éĵ¾æİ¥": 6992,
      "èĬ¦": 6993,
      "èī¾æ»ĭ": 6994,
      "ä¸įåĪ©": 6995,
      "çļĦåħ·ä½ĵ": 6996,
      "åĬŀåŃ¦": 6997,
      "éĤĢè¯·": 6998,
      "çŃīäºº": 6999,
      "èĮħ": 7000,
      "åĪ©äºļ": 7001,
      "æĢ§çĸ¾çĹħ": 7002,
      "æ¢¨": 7003,
      "åĩłå¤©": 7004,
      "å¯¼å¸Ī": 7005,
      "ä¼ĺç§ĢçļĦ": 7006,
      "ç´Ĭ": 7007,
      "è½½ä½ĵ": 7008,
      "çľĭèµ·æĿ¥": 7009,
      "åħ±è¯Ĩ": 7010,
      "æ¯Ķåĸ»": 7011,
      "ä»ĩ": 7012,
      "ä¾¿äºİ": 7013,
      "èĲĿåįľ": 7014,
      "éĵĿ": 7015,
      "æŁ¥çľĭ": 7016,
      "åıĳè¾¾åĽ½å®¶": 7017,
      "ä¿¡è´·": 7018,
      "å¨©": 7019,
      "åħĥå¹´": 7020,
      "78": 7021,
      "æ°Ķæ°Ľ": 7022,
      "è¿ĩæ»¤": 7023,
      "çĦī": 7024,
      "èĳ£äºĭ": 7025,
      "ä¸Ģåı¥": 7026,
      "å¾Īéĩįè¦ģ": 7027,
      "æ¤Ĵ": 7028,
      "çķ¸å½¢": 7029,
      "å°ıå¿ĥ": 7030,
      "ä¸įè¶ħè¿ĩ": 7031,
      "åĨįåĬłä¸Ĭ": 7032,
      "åľ°æĸ¹æĶ¿åºľ": 7033,
      "çļĦå¤ļ": 7034,
      "å¦Ĥæŀľä¸į": 7035,
      "æĤ¨çļĦ": 7036,
      "èĢĮæĿ¥": 7037,
      "äº§åĲİ": 7038,
      "æ³ķå¾ĭæ³ķè§Ħ": 7039,
      "ç²¾ç¡®": 7040,
      "ä¸įæĸŃçļĦ": 7041,
      "ä¸įä»ħæĺ¯": 7042,
      "å®³æĢķ": 7043,
      "æŁ¥è¯¢": 7044,
      "ä¸ĢæĹ¥": 7045,
      "å¯¹çħ§": 7046,
      "ä¼¦çĲĨ": 7047,
      "600": 7048,
      "åĲĮå¿Ĺ": 7049,
      "è·ŁçĿĢ": 7050,
      "è´§å¸ģæĶ¿çŃĸ": 7051,
      "å³»": 7052,
      "æĲºå¸¦": 7053,
      "åºĵåŃĺ": 7054,
      "ms": 7055,
      "è¤Ĳ": 7056,
      "åıĳè¨Ģ": 7057,
      "åĢ¡å¯¼": 7058,
      "æł¼å¼ı": 7059,
      "åĽ½åĨħå¤ĸ": 7060,
      "éļĶç¦»": 7061,
      "åįĹå®ĭ": 7062,
      "å½ĵä½ł": 7063,
      "éĿ¢è¯ķ": 7064,
      "é¸Ń": 7065,
      "ç®Ĺæĺ¯": 7066,
      "å¯¹ä¸ŃåĽ½": 7067,
      "ä¹¦éĿ¢": 7068,
      "çĻ«çĹ": 7069,
      "å®´": 7070,
      "åĨ³å®ļäºĨ": 7071,
      "çĻ¾ä¸ĩ": 7072,
      "æłĩåĩĨçļĦ": 7073,
      "æ½ľåĬĽ": 7074,
      "å¼ºçĥĪçļĦ": 7075,
      "ä¹ĭåĨħ": 7076,
      "åĽ¢ç»ĵ": 7077,
      "æĹ¬": 7078,
      "æĮĩå®ļ": 7079,
      "æ¿Ģåħī": 7080,
      "æ¯Ķéĩį": 7081,
      "å°±æĺ¯åľ¨": 7082,
      "éĢłæĪĲäºĨ": 7083,
      "å¿ĥè¡Ģç®¡": 7084,
      "ç¬¬äºĮä¸ª": 7085,
      "çĻ«çĹ«": 7086,
      "æĶ¶è´¹": 7087,
      "çļĦåĬĽéĩı": 7088,
      "è·¯ä¸Ĭ": 7089,
      "åį³æĺ¯": 7090,
      "å®ŀä¹ł": 7091,
      "æŀĦéĢł": 7092,
      "æŀģå¤§çļĦ": 7093,
      "æ¸¸æ³³": 7094,
      "Ġtr": 7095,
      "èĥ°å²Ľ": 7096,
      "æĦıåĽ¾": 7097,
      "éĤ£å°±": 7098,
      "åĪłéĻ¤": 7099,
      "éĽĢ": 7100,
      "64": 7101,
      "è¶³ä»¥": 7102,
      "ä¸ĭæĿ¥çļĦ": 7103,
      "èģĶåĤ¨": 7104,
      "çĶ¨åľ°": 7105,
      "èĪŀåı°": 7106,
      "ä¸Ģå¼ł": 7107,
      "åĽŀæĿ¥": 7108,
      "åħ¬åĬ¡": 7109,
      "å½±åĥı": 7110,
      "Ġè¯¥": 7111,
      "å¤ļä¹Ī": 7112,
      "Ġ13": 7113,
      "è¦ģçĤ¹": 7114,
      "æŁĵèī²": 7115,
      "éļ¾çĤ¹": 7116,
      "ie": 7117,
      "äºĮæ°§åĮĸ": 7118,
      "æĸ°çĸĨ": 7119,
      "æīĢä»¥åľ¨": 7120,
      "ç¬¬äºĮæ¬¡": 7121,
      "èĢĲå¿ĥ": 7122,
      "å¢ŀçĶŁ": 7123,
      "å¤ļä¸º": 7124,
      "mb": 7125,
      "å¾ħéģĩ": 7126,
      "åĬŀåħ¬å®¤": 7127,
      "å®ªæ³ķ": 7128,
      "æľĪçļĦ": 7129,
      "å¹¿è¥¿": 7130,
      "äº«æľī": 7131,
      "è§ĨåĬĽ": 7132,
      "æĿĨèıĮ": 7133,
      "ç¨ĭåº¦çļĦ": 7134,
      "èģĶåĲĪåĽ½": 7135,
      "æĦļ": 7136,
      "æĤĦ": 7137,
      "Ġè¿ĻäºĽ": 7138,
      "è¯ı": 7139,
      "åĮ»èį¯": 7140,
      "çļĦä¹łæĥ¯": 7141,
      "ç´¯è®¡": 7142,
      "éĥ½éľĢè¦ģ": 7143,
      "æİ¨è¡Į": 7144,
      "ç¦»ä¸įå¼Ģ": 7145,
      "èĲİç¼©": 7146,
      "ç¾İå¥½": 7147,
      "æĸ°èĥ½æºĲ": 7148,
      "è´¨çļĦ": 7149,
      "åĨ¶": 7150,
      "è¯¾å¤ĸ": 7151,
      "å¨ĥ": 7152,
      "ç³ķ": 7153,
      "å¥³åŃĲ": 7154,
      "æľ¬åľ°": 7155,
      "ä¸»äºº": 7156,
      "é¹ħ": 7157,
      "æľīæĹ¶åĢĻ": 7158,
      "å¤±åİ»äºĨ": 7159,
      "æķĮäºº": 7160,
      "äºĮæ¬¡": 7161,
      "ä¸»ä¹īçļĦ": 7162,
      "çĥ¦æģ¼": 7163,
      "åıĳæİĺ": 7164,
      "çļĦéĢŁåº¦": 7165,
      "æŀķ": 7166,
      "åŁİå¸ĤçļĦ": 7167,
      "æ¸ħæ´Ĺ": 7168,
      "éģŃåıĹ": 7169,
      "åĳ¼åĲ¸éģĵ": 7170,
      "æ··ä¹±": 7171,
      "ç»Īèº«": 7172,
      "èµ·æĿ¥çļĦ": 7173,
      "Ġyo": 7174,
      "åıĺä¸º": 7175,
      "æķ·": 7176,
      "é¡¹çĽ®çļĦ": 7177,
      "ç®¡çĲĨèĢħ": 7178,
      "éĩıåŃĲ": 7179,
      "æľīæĹł": 7180,
      "æŃ£éĿ¢": 7181,
      "æŁľ": 7182,
      "éªĤ": 7183,
      "çħ§é¡¾": 7184,
      "çºº": 7185,
      "åĬ¨æīĭ": 7186,
      "ç»´ä¿®": 7187,
      "æİĴåįµ": 7188,
      "åįıåĬ©": 7189,
      "çĽ´å¾Ħ": 7190,
      "æĪĪ": 7191,
      "æĺ¯æĹł": 7192,
      "æŃ¤ç±»": 7193,
      "è´ŁéĿ¢": 7194,
      "è¥¿çıŃ": 7195,
      "ç±»åŀĭçļĦ": 7196,
      "3000": 7197,
      "åħ¬æŃ£": 7198,
      "æĪĺåľº": 7199,
      "ant": 7200,
      "ä¿Ĭ": 7201,
      "æŃĩ": 7202,
      "è¯¾åłĤä¸Ĭ": 7203,
      "èĬĤçĤ¹": 7204,
      "ell": 7205,
      "æľĢæĸ°": 7206,
      "éĩįå»º": 7207,
      "æŃ£è§Ħ": 7208,
      "æ¯«ç±³": 7209,
      "èĩ´ä½¿": 7210,
      "Ġå°Ĩ": 7211,
      "çĨ¬": 7212,
      "æİ¢æµĭ": 7213,
      "è¥¿çıŃçīĻ": 7214,
      "çļĦåĲį": 7215,
      "èĪŀè¹Ī": 7216,
      "ä¸įæ¸ħ": 7217,
      "çº¦ä¸º": 7218,
      "èĮ«": 7219,
      "åĬŁçİĩ": 7220,
      "å¼¹æĢ§": 7221,
      "äºıæįŁ": 7222,
      "è´¨çĸĳ": 7223,
      "rom": 7224,
      "ç¤¼ä»ª": 7225,
      "éģŃéģĩ": 7226,
      "å¯Ĩçłģ": 7227,
      "åĩłçĤ¹": 7228,
      "æĹłåĬĽ": 7229,
      "æĮĩçļĦæĺ¯": 7230,
      "çļĦä»·æł¼": 7231,
      "ç»ĵå©ļ": 7232,
      "åķ¦": 7233,
      "å®īåħ¨çļĦ": 7234,
      "æĳĨèĦ±": 7235,
      "å¯¹èĩªå·±": 7236,
      "ä¼ļäº§çĶŁ": 7237,
      "ç»ıåİĨäºĨ": 7238,
      "æĺ¯çĶ¨": 7239,
      "å¤§å¤«": 7240,
      "Ġåħ¶æ¬¡": 7241,
      "æ°Ķæ¸©": 7242,
      "äº¤äºĴ": 7243,
      "åĬ³åĬ¨åĬĽ": 7244,
      "ack": 7245,
      "ĠæĹ¥": 7246,
      "æ¤ħ": 7247,
      "å¸¸çĶ¨çļĦ": 7248,
      "æŀģç«¯": 7249,
      "è°ĥçłĶ": 7250,
      "éĢļçĶ¨": 7251,
      "åĪĨåī²": 7252,
      "å·²ç»ıæĪĲä¸º": 7253,
      "æľīä¸Ģå®ļçļĦ": 7254,
      "ä¹Łå°Ĩ": 7255,
      "çªĥ": 7256,
      "æĸĭ": 7257,
      "å¤±çľł": 7258,
      "éĿ¢ä¸Ĭ": 7259,
      "å¥¹ä»¬": 7260,
      "ä¸Ģæī¹": 7261,
      "æ²¡æľīä»»ä½ķ": 7262,
      "æĽ´æį¢": 7263,
      "ç»ĻæĪĳä»¬": 7264,
      "å®ĥä»¬çļĦ": 7265,
      "åĬ¨çĶ»": 7266,
      "æİĴåĪĹ": 7267,
      "ä¿®åħ»": 7268,
      "pc": 7269,
      "èĩªåĬ¨åĮĸ": 7270,
      "å¤ªéĺ³èĥ½": 7271,
      "åŃĲå®«åĨħèĨľ": 7272,
      "å®¡æī¹": 7273,
      "æııç»ĺ": 7274,
      "è´«è¡Ģ": 7275,
      "æľĪåĪĿ": 7276,
      "èĹ©": 7277,
      "ä¼ĺæĥł": 7278,
      "æ¶Ľ": 7279,
      "éľŀ": 7280,
      "Ġ14": 7281,
      "åĮĹäº¬å¸Ĥ": 7282,
      "çļĦä¸ī": 7283,
      "çļĦæľĢå¤§": 7284,
      "æ°´èĤ¿": 7285,
      "æĬ¥èĢĥ": 7286,
      "ä¸Ńåħ±": 7287,
      "æ¬§çĽŁ": 7288,
      "çļĦæľīæķĪ": 7289,
      "åĸĤåħ»": 7290,
      "ä½ĵæ¸©": 7291,
      "çŃīéĹ®é¢ĺ": 7292,
      "è±«": 7293,
      "åħ³éĶ®è¯į": 7294,
      "èģļéĽĨ": 7295,
      "ä½ĵç§¯": 7296,
      "çŁ¥çļĦ": 7297,
      "åĴ±": 7298,
      "ç¥ŀè¯Ŀ": 7299,
      "çľĭçĿĢ": 7300,
      "Ġar": 7301,
      "å®ĮæĪĲäºĨ": 7302,
      "Ġas": 7303,
      "ast": 7304,
      "è¦ģä¹Ī": 7305,
      "äºĭçī©çļĦ": 7306,
      "çļĦå½¢æĪĲ": 7307,
      "éķ¿åº¦": 7308,
      "åıĳç¥¨": 7309,
      "æīįæľī": 7310,
      "è¡¨è¿°": 7311,
      "èĲĮ": 7312,
      "åĳ³éģĵ": 7313,
      "ä¸ŃåĽ½äººæ°ĳ": 7314,
      "ä¼łæĦŁåĻ¨": 7315,
      "æµı": 7316,
      "åĪĨåĮĸ": 7317,
      "æĺ¯æĢİä¹Ī": 7318,
      "èĥļèĥİ": 7319,
      "åīįè¿Ľ": 7320,
      "å¤´çļĦ": 7321,
      "èĥĮæĻ¯ä¸ĭ": 7322,
      "å¥³åŃ©": 7323,
      "ç»Ļäºº": 7324,
      "æĿ¥èĩªäºİ": 7325,
      "æģŃ": 7326,
      "åĮ¹éħį": 7327,
      "éª¨éª": 7328,
      "èĭıå·ŀ": 7329,
      "æīĢç¤º": 7330,
      "è¶Ĭå¤ļ": 7331,
      "çļĦä¸Ģé¡¹": 7332,
      "åİŁåĪĽ": 7333,
      "ç»¸": 7334,
      "ore": 7335,
      "åľ¨ä»ĸ": 7336,
      "æŃ»åĲİ": 7337,
      "åħ¶ä½Ļ": 7338,
      "æī§æ³ķ": 7339,
      "åľ¨å®¶": 7340,
      "æĵİ": 7341,
      "é£İæĻ¯": 7342,
      "ä¸ĵé¢ĺ": 7343,
      "è§Ĩè§Ĵ": 7344,
      "å¿ĥèĤĮ": 7345,
      "çļĦæĹ¶ä»£": 7346,
      "67": 7347,
      "ile": 7348,
      "æ°´æ³¥": 7349,
      "cc": 7350,
      "dna": 7351,
      "å½°": 7352,
      "ç¼ĸåĪ¶": 7353,
      "åıĺå½¢": 7354,
      "ç¯ĩæĸĩç«ł": 7355,
      "2003": 7356,
      "å¦»åŃĲ": 7357,
      "æł·åŃĲ": 7358,
      "æıŃç¤º": 7359,
      "è¿ľç¨ĭ": 7360,
      "æ¸ħåįİ": 7361,
      "çº¢åĨĽ": 7362,
      "çī¹å®ļçļĦ": 7363,
      "to": 7364,
      "åħįçĸ«åĬĽ": 7365,
      "çłĶç©¶è¡¨æĺİ": 7366,
      "ice": 7367,
      "åĪĨä¹ĭä¸Ģ": 7368,
      "åĪĨå¨©": 7369,
      "å¤§æī¹": 7370,
      "æī¾åĩº": 7371,
      "åįıä½ľ": 7372,
      "çĶŁæ´»åľ¨": 7373,
      "ç¥Ńç¥Ģ": 7374,
      "æĸ°æĬĢæľ¯": 7375,
      "è´¯å½»": 7376,
      "ä¸Ģå®ļä¼ļ": 7377,
      "åŀĤçĽ´": 7378,
      "è§ģçļĦ": 7379,
      "ä»ªåĻ¨": 7380,
      "æľįè£ħ": 7381,
      "å½ĵä½ľ": 7382,
      "çļĦä¸ĢåĪĩ": 7383,
      "ç§ģäºº": 7384,
      "éĥĬ": 7385,
      "Ġå¤©": 7386,
      "èģĶéĤ¦": 7387,
      "åħ³éĹŃ": 7388,
      "æĳĬ": 7389,
      "ere": 7390,
      "çļĦç©ºéĹ´": 7391,
      "éĺ²çģ«": 7392,
      "åİ¨": 7393,
      "éĺ²æİ§": 7394,
      "äºĮèĢħ": 7395,
      "å®¡çĲĨ": 7396,
      "æĹ¢æľī": 7397,
      "çļĦåĽłç´ł": 7398,
      "åıįå¼¹": 7399,
      "çļĦæ¯Ķä¾ĭ": 7400,
      "æ®·": 7401,
      "è§£çŃĶ": 7402,
      "çĽ²çĽ®": 7403,
      "çĹ´": 7404,
      "åįłé¢Ĩ": 7405,
      "å¤§åĽ½": 7406,
      "çļĦä¸ĵä¸ļ": 7407,
      "çľŁæĺ¯": 7408,
      "éļıæľº": 7409,
      "åºĶæĢ¥": 7410,
      "800": 7411,
      "è¯´åĪ°": 7412,
      "ä¸įæĩĤ": 7413,
      "çļĦåĩºçİ°": 7414,
      "ä¸ĢæĹ¶": 7415,
      "éĥ¨ä»¶": 7416,
      "èĢģæĿ¿": 7417,
      "äººæĺ¯": 7418,
      "å°±å·²ç»ı": 7419,
      "éĺ²å¾¡": 7420,
      "éĢļèĥĢ": 7421,
      "åĬĽäºİ": 7422,
      "èµ·çĤ¹": 7423,
      "çļĦå¼Ģ": 7424,
      "æ¶ĪçģŃ": 7425,
      "çĨı": 7426,
      "å½ĵä¸ĭ": 7427,
      "åĲİåĨį": 7428,
      "çģ¾å®³": 7429,
      "åŁ¹åħ»åŃ¦çĶŁ": 7430,
      "åħ¥ä¾µ": 7431,
      "åĽŀé¡¾": 7432,
      "é¥®éħĴ": 7433,
      "èĪĴéĢĤ": 7434,
      "è°¨æħİ": 7435,
      "éĺĲè¿°": 7436,
      "æĬĹä½ĵ": 7437,
      "Ġnd": 7438,
      "åĲ¦å®ļ": 7439,
      "ç´Ĭä¹±": 7440,
      "åıĤè§Ĥ": 7441,
      "çĪµ": 7442,
      "ä»ªå¼ı": 7443,
      "è¾īçħĮ": 7444,
      "æµ¦": 7445,
      "çĶŁæĢģçİ¯å¢ĥ": 7446,
      "è®ºè¯ģ": 7447,
      "ç«ĸ": 7448,
      "èĩ³åħ³": 7449,
      "éĻ¢éķ¿": 7450,
      "Ġåı¯": 7451,
      "ä¸įå®ī": 7452,
      "èģĮåĬ¡": 7453,
      "åīįèĢħ": 7454,
      "éĶĻè¯¯çļĦ": 7455,
      "æĦıä¹īä¸Ĭ": 7456,
      "ç¬¬åħŃ": 7457,
      "è¥Ħ": 7458,
      "çº§åĪ«": 7459,
      "ä»ĺåĩº": 7460,
      "å¹¶å°Ĩ": 7461,
      "è¯ļä¿¡": 7462,
      "æķ°åŃĹåĮĸ": 7463,
      "ä¾¦": 7464,
      "ç«¯åįĪ": 7465,
      "ä¿¡å¿µ": 7466,
      "æŀģå¤§": 7467,
      "æ¸©æļĸ": 7468,
      "å¥½å¥½": 7469,
      "ä¸įé«ĺ": 7470,
      "æĸĩåĮĸéģĹäº§": 7471,
      "æĦıä¹īçļĦ": 7472,
      "éħ¯": 7473,
      "çĸĳéĹ®": 7474,
      "ç»ĵç®Ĺ": 7475,
      "åħħåĪĨåıĳæĮ¥": 7476,
      "å¹´åĲİ": 7477,
      "åĩºèµĦ": 7478,
      "Ġä»Ĭå¤©": 7479,
      "end": 7480,
      "æĺŁæľŁ": 7481,
      "éĩİçĶŁ": 7482,
      "åİŁåĽłæĺ¯": 7483,
      "ä»ĬæĹ¥": 7484,
      "æłĩçŃ¾": 7485,
      "å¿ĺè®°": 7486,
      "é¡½": 7487,
      "çª¦": 7488,
      "è¡¨çİ°åľ¨": 7489,
      "æµĬ": 7490,
      "net": 7491,
      "Ġè¿Ļç§į": 7492,
      "åĪ°æĿ¥": 7493,
      "çļĦæ³ķå¾ĭ": 7494,
      "åĲŁ": 7495,
      "æ°¨åŁº": 7496,
      "çĦļ": 7497,
      "åĬŁå¤«": 7498,
      "å¸Ŀçİĭ": 7499,
      "å°±æĺ¯ä¸Ģä¸ª": 7500,
      "ç®Ģä»ĭ": 7501,
      "åĵįåºĶ": 7502,
      "pv": 7503,
      "èĹ»": 7504,
      "åįıåķĨ": 7505,
      "Ġcl": 7506,
      "æĶ¶çĽĬçİĩ": 7507,
      "æĬĳéĥģçĹĩ": 7508,
      "ain": 7509,
      "æĿĳæ°ĳ": 7510,
      "åŃĲéĩĮ": 7511,
      "æĪĳæĺ¯": 7512,
      "æ©¡": 7513,
      "çļĦåı¯": 7514,
      "å¯ĨéĽĨ": 7515,
      "è£Ķ": 7516,
      "åĸľçĪ±": 7517,
      "äººå®¶": 7518,
      "åĵ®": 7519,
      "ç«ĭåľº": 7520,
      "æ¶²ä½ĵ": 7521,
      "ä¸ºå¤§å®¶": 7522,
      "çĽ´èĤł": 7523,
      "å¦ĩç§ĳ": 7524,
      "å®½æĿ¾": 7525,
      "åľ°è´¨": 7526,
      "Ġå¸Ī": 7527,
      "æħ¨": 7528,
      "èĨĢèĥ±": 7529,
      "æľīä¸Ģç§į": 7530,
      "åĸĬ": 7531,
      "å¿ħéľĢ": 7532,
      "åĩłä½ķ": 7533,
      "è¯´äºĨ": 7534,
      "åĽŃæŀĹ": 7535,
      "å¹¿éĺĶ": 7536,
      "çŃīåĪ°": 7537,
      "æĲŃéħį": 7538,
      "Ġor": 7539,
      "æľºåĬ¨è½¦": 7540,
      "æį®è¯´": 7541,
      "æĬ¥åĲį": 7542,
      "Ġä¸ºä»Ģä¹Ī": 7543,
      "éĺ»ç¢į": 7544,
      "éĤ£æĹ¶": 7545,
      "äº²åŃĲ": 7546,
      "å¤ĸçķĮ": 7547,
      "å¤ĸç§ĳ": 7548,
      "æĤ£çĹħ": 7549,
      "åĳµ": 7550,
      "æĿı": 7551,
      "åıĳèµ·": 7552,
      "æĸ°å¢ŀ": 7553,
      "åı¯ä»¥çľĭåĩº": 7554,
      "å¼ĵ": 7555,
      "çł´äº§": 7556,
      "å§Ķä¼ļ": 7557,
      "çĥ¤": 7558,
      "èĳ¡èĲĦéħĴ": 7559,
      "éģŃåĪ°": 7560,
      "æ³ķå®ĺ": 7561,
      "é¢ĨåħĪ": 7562,
      "æ¸ħæĺİ": 7563,
      "éª¨éª¼": 7564,
      "èīĩ": 7565,
      "ç¾İèģĶåĤ¨": 7566,
      "ä¹¦çļĦ": 7567,
      "åĤ¨åŃĺ": 7568,
      "èĬĤçĽ®": 7569,
      "çİ¯å¢ĥä¸Ń": 7570,
      "æĿ¿åĿĹ": 7571,
      "çĽ¸å¯¹äºİ": 7572,
      "éļĲæĤ£": 7573,
      "çļĦå¤§å°ı": 7574,
      "57": 7575,
      ",(": 7576,
      "æĦ¿æľĽ": 7577,
      "ç¦Ħ": 7578,
      "å®ŀéĻħæĥħåĨµ": 7579,
      "ĠæķĻåŃ¦": 7580,
      "çľĭåĪ°äºĨ": 7581,
      "éº»çĥ¦": 7582,
      "58": 7583,
      "æĸ¯çī¹": 7584,
      "éĽ¶åĶ®": 7585,
      "ä½łè¦ģ": 7586,
      "èĿ¶": 7587,
      "èĽ®": 7588,
      "ys": 7589,
      "åľĨå½¢": 7590,
      "æĺ¯å¤§": 7591,
      "çĽ´èĩ³": 7592,
      "æķ°æį®çļĦ": 7593,
      "é¹¤": 7594,
      "èĢĮåıĪ": 7595,
      "str": 7596,
      "ä¸ĢåįĬ": 7597,
      "ç¼©çŁŃ": 7598,
      "çĶµåĬ¨": 7599,
      "å¹¿æĴŃ": 7600,
      "ç´§æĢ¥": 7601,
      "bo": 7602,
      "å··": 7603,
      "è¡Įä½¿": 7604,
      "ä¸Ĭç½ĳ": 7605,
      "é«ĺåİĭ": 7606,
      "çŃĴ": 7607,
      "å¤±è°ĥ": 7608,
      "æ±ª": 7609,
      "ç»ĵæŀĦçļĦ": 7610,
      "æ½ĺ": 7611,
      "çĽ¸æľº": 7612,
      "åĲĳåīį": 7613,
      "Ġbl": 7614,
      "èĸ¯": 7615,
      "æŃ£å½ĵ": 7616,
      "éĻ¤æŃ¤": 7617,
      "çļĦè¯´æ³ķ": 7618,
      "å¦Ĥæľī": 7619,
      "åħīç»ª": 7620,
      "çĶ·åŃ©": 7621,
      "é¢ĺæĿĲ": 7622,
      "äººåĿĩ": 7623,
      "çĽ´è§Ĥ": 7624,
      "ĠæĹł": 7625,
      "è¾¹çļĦ": 7626,
      "age": 7627,
      "ç®¡è¾ĸ": 7628,
      "å°±ä¸įä¼ļ": 7629,
      "æĦŁæģ©": 7630,
      "æŃ¤åĲİ": 7631,
      "ç©ºä¸Ń": 7632,
      "43": 7633,
      "å»ºæŀĦ": 7634,
      "èĹ¤": 7635,
      "åºĶåľ¨": 7636,
      "åĬłçĥŃ": 7637,
      "æĮĩä»¤": 7638,
      "åı£æľį": 7639,
      "çº¿è·¯": 7640,
      "åģļä¸Ģä¸ª": 7641,
      "èĢħåĴĮ": 7642,
      "å®ŀçļĦ": 7643,
      "åªĴä»ĭ": 7644,
      "è®²åº§": 7645,
      "æĮīæĳ©": 7646,
      "2004": 7647,
      "èĥ°å²Ľç´ł": 7648,
      "pm": 7649,
      "äººä»¬å¯¹": 7650,
      "ä½Ĩæĺ¯åľ¨": 7651,
      "æĭ¾": 7652,
      "åİ¥": 7653,
      "æĦıçļĦ": 7654,
      "å¸Ĥåľºç»ıæµİ": 7655,
      "ĠåĨį": 7656,
      "åĪ¹": 7657,
      "åŃĹçļĦ": 7658,
      "96": 7659,
      "çŃīçĹĩçĬ¶": 7660,
      "èĳ±": 7661,
      "\"-": 7662,
      "åīįå¾Ģ": 7663,
      "åıĳéĢģ": 7664,
      "å½±åĵįåĪ°": 7665,
      "Ġ?": 7666,
      "åĪ®": 7667,
      "èĢģåŃĲ": 7668,
      "çĶŁäº§çļĦ": 7669,
      "å¹´è½»äºº": 7670,
      "è¿ĺä¸į": 7671,
      "èµ·æºĲ": 7672,
      "è¿ĳæľŁ": 7673,
      "æĹ¶éĹ´åĨħ": 7674,
      "èĨ³é£Ł": 7675,
      "æĶ¹éĿ©çļĦ": 7676,
      "æ¸£": 7677,
      "çłĶåĪ¶": 7678,
      "æ¯Ĵç´ł": 7679,
      "èĢĮåĲİ": 7680,
      "åī§çĥĪ": 7681,
      "æĪļ": 7682,
      "æ°ĳèĲ¥": 7683,
      "æĦīå¿«": 7684,
      "åºĶçĶ¨äºİ": 7685,
      "é£Łæ¬²": 7686,
      "æĪ¿éĹ´": 7687,
      "æĦŁæĤŁ": 7688,
      "æķĻåłĤ": 7689,
      "æĹĭè½¬": 7690,
      "41": 7691,
      "éĥ¨èĲ½": 7692,
      "å¥½å¥ĩ": 7693,
      "çĥŃçĤ¹": 7694,
      "åĥµ": 7695,
      "è¿Ļæł·åģļ": 7696,
      "å¤§æĪĺ": 7697,
      "èµ°åĩº": 7698,
      "æ¬§åħĥ": 7699,
      "è¦ģæĬĬ": 7700,
      "Ġser": 7701,
      "ä¹Łè¢«": 7702,
      "åĨħåŃĺ": 7703,
      "æĥ©ç½ļ": 7704,
      "è§Ĥæµĭ": 7705,
      "5000": 7706,
      "éĺ»æŃ¢": 7707,
      "ä¹ĭå¿ĥ": 7708,
      "è¶Ĭé«ĺ": 7709,
      "ç¨³å®ļæĢ§": 7710,
      "xx": 7711,
      "èµĮ": 7712,
      "éĢĢåĩº": 7713,
      "ç«ŁçĦ¶": 7714,
      "æ°´éĩı": 7715,
      "ä¸ĢçĽ´åľ¨": 7716,
      "æµıè§Ī": 7717,
      "çĮ´": 7718,
      "ä¸İä¹ĭ": 7719,
      "ä¼ģä¸ļåľ¨": 7720,
      "çŁ³å¤´": 7721,
      "51": 7722,
      "åĪĨå·¥": 7723,
      "æłĩé¢ĺ": 7724,
      "æ¶ĤæĸĻ": 7725,
      "ç¼Ĩ": 7726,
      "ç²¾å¿ĥ": 7727,
      "çļĦé«ĺåº¦": 7728,
      "çļĦäººæīį": 7729,
      "æĹħè¡Į": 7730,
      "éĴ¢éĵģ": 7731,
      "éĥ½å¾Ī": 7732,
      "å¤´éĥ¨": 7733,
      "å»ºè®¾çļĦ": 7734,
      "ç«ŀèµĽ": 7735,
      "éĽķå¡ĳ": 7736,
      "è¶ħçº§": 7737,
      "æĺ¥èĬĤ": 7738,
      "Ġæ³¨": 7739,
      "æĹ¥æľŁ": 7740,
      "çļĦäºĭå®ŀ": 7741,
      "æľīè®¸å¤ļ": 7742,
      "Ġthat": 7743,
      "å¤±ä¸ļ": 7744,
      "ä¸įä»ħä»ħæĺ¯": 7745,
      "Ġ17": 7746,
      "ä¾µå®³": 7747,
      "å¤ĸäº¤": 7748,
      "est": 7749,
      "çŁ¥è¯ĨåĴĮ": 7750,
      "for": 7751,
      "ĠçĻ½": 7752,
      "åıįæĺłäºĨ": 7753,
      "æķĻåŃ¦çļĦ": 7754,
      "Ġwith": 7755,
      "è¿ĩåĪĨ": 7756,
      "åĲĪéĢĤçļĦ": 7757,
      "ä»ĸå¯¹": 7758,
      "æĹłåħ³": 7759,
      "ä¸Ģäºº": 7760,
      "è¿ĩç¨ĭä¸ŃçļĦ": 7761,
      "ä¼ļè¢«": 7762,
      "çļĦä¼łç»Ł": 7763,
      "å¼ķæĵİ": 7764,
      "æ³¨æĦıçļĦæĺ¯": 7765,
      "åŁĥåıĬ": 7766,
      "52": 7767,
      "çī©ä¸ļ": 7768,
      "æĢ»é¢Ŀ": 7769,
      "æĺ¥å¤©": 7770,
      "the": 7771,
      "åŃ¦éĹ®": 7772,
      "æĶ¿çŃĸçļĦ": 7773,
      "ç»ıè´¹": 7774,
      "åĪĨåĪ«ä¸º": 7775,
      "æĽ´é«ĺçļĦ": 7776,
      "æ¿Ģæ´»": 7777,
      "çļĦåĲĦç§į": 7778,
      "åĿĿ": 7779,
      "ç§¦åĽ½": 7780,
      "è´ŃæĪ¿": 7781,
      "å¯ĮåĲ«": 7782,
      "çĭŃçªĦ": 7783,
      "88": 7784,
      "æ°Ķè¡Ģ": 7785,
      "kg": 7786,
      "è¿ĻæĹ¶åĢĻ": 7787,
      "å¹¶ä¸įèĥ½": 7788,
      "æĺİç¡®çļĦ": 7789,
      "Ġæľ¬æĸĩ": 7790,
      "ç§ĳåŃ¦éĻ¢": 7791,
      "ser": 7792,
      "çļĦéĤ£": 7793,
      "è¿ĻæĿ¡": 7794,
      "åŃĲåŃĻ": 7795,
      "è°ĥè§£": 7796,
      "ç¼ºå¤±": 7797,
      "åıĤçħ§": 7798,
      "åĲİä»£": 7799,
      "åĨħå®¹çļĦ": 7800,
      "åŃ¦ä¹łåĴĮ": 7801,
      "å¹¿åľº": 7802,
      "Ġåīį": 7803,
      "äººèº«": 7804,
      "åİ¦": 7805,
      "çļĦä¸¤": 7806,
      "ç¥ŀå¥ĩ": 7807,
      "ç¥ĸåħĪ": 7808,
      "66": 7809,
      "æĥķ": 7810,
      "çľĭå¾ħ": 7811,
      "æ¸¸å®¢": 7812,
      "å¤´èĦĳ": 7813,
      "éĤĳ": 7814,
      "Ġad": 7815,
      "çĲĨå·¥": 7816,
      "çļĦæĿĥåĪ©": 7817,
      "ç»ĵçŁ³": 7818,
      "äºĶåįģ": 7819,
      "æīĭä¸Ń": 7820,
      "å°ĳéĩı": 7821,
      "ĠåĲĮæĹ¶": 7822,
      "ä¸Ńæŀ¢": 7823,
      "è°ľ": 7824,
      "ç¨£": 7825,
      "ä½ĨçĶ±äºİ": 7826,
      "ä¾¿åĪ©": 7827,
      "è´®": 7828,
      "åĶĩ": 7829,
      "å¼¥è¡¥": 7830,
      "æĨ¾": 7831,
      "æľīåºı": 7832,
      "éĢļè¿ĩå¯¹": 7833,
      "è½»æĺĵ": 7834,
      "é¢ħ": 7835,
      "ä¸Ģå®ļç¨ĭåº¦ä¸Ĭ": 7836,
      "çļĦçĶŁäº§": 7837,
      "äººä¸į": 7838,
      "èĢ»": 7839,
      "åıĳæĶ¾": 7840,
      "æľªç»ı": 7841,
      "Ġ--": 7842,
      "çļĦä¸»ä½ĵ": 7843,
      "åĽłæŀľ": 7844,
      "ç²¾ç»Ĩ": 7845,
      "ĠåŃ©åŃĲ": 7846,
      "ä¹ĭéĻħ": 7847,
      "ä¸Ģä¸ªæĺ¯": 7848,
      "çģŃäº¡": 7849,
      "å¯¡": 7850,
      "æ¾³å¤§åĪ©": 7851,
      "åºķéĥ¨": 7852,
      "äºĨå¯¹": 7853,
      "æģ°å½ĵ": 7854,
      "ĠéĻĪ": 7855,
      "ç¡®è¯Ĭ": 7856,
      "çĺĢ": 7857,
      "èĢ¶ç¨£": 7858,
      "äºĨä¸ĢäºĽ": 7859,
      "æīĢèĥ½": 7860,
      "è¶ħå£°": 7861,
      "åıªä¸įè¿ĩ": 7862,
      "Ġé»Ħ": 7863,
      "ä¸ĸéĹ´": 7864,
      "äººæ°ĳæĶ¿åºľ": 7865,
      "çĨĶ": 7866,
      "åıĻè¿°": 7867,
      "åħ¬ä¸»": 7868,
      "æ·±çļĦ": 7869,
      "ç»ĦæĪĲçļĦ": 7870,
      "æ¾³å¤§åĪ©äºļ": 7871,
      "å°±éľĢè¦ģ": 7872,
      "å²Ĥ": 7873,
      "ĠéĻ¤äºĨ": 7874,
      "åĮĸå·¥": 7875,
      "æĶ¯éħį": 7876,
      "åĪĽè®¾": 7877,
      "çĽ¸ä¼ł": 7878,
      "ä¸ĢèĪ¬çļĦ": 7879,
      "çļĦäººçī©": 7880,
      "çľģçº§": 7881,
      "pro": 7882,
      "åįĸåĩº": 7883,
      "ç»ŁçŃ¹": 7884,
      "æĿİçĻ½": 7885,
      "æīĢæľīæĿĥ": 7886,
      "æĴ¤éĶĢ": 7887,
      "å·´é»İ": 7888,
      "æ³¨æĦıäºĭé¡¹": 7889,
      "è¿ĺåı¯": 7890,
      "å¤§ä¾¿": 7891,
      "è¡Įèµ°": 7892,
      "åĬŁèĥ½çļĦ": 7893,
      "æĸ©": 7894,
      "ä¾ĿæĹ§": 7895,
      "ç¼©å°ı": 7896,
      "ä¸Ĭä¸ĸçºª": 7897,
      "åĪĨè¾¨": 7898,
      "äº§ä¸ļéĵ¾": 7899,
      "per": 7900,
      "é¦ĸè¦ģ": 7901,
      "\":": 7902,
      "æĭ±": 7903,
      "è¿¦": 7904,
      "åıĮæīĭ": 7905,
      "åįĥéĩĮ": 7906,
      "åĵºä¹³": 7907,
      "æĺĶ": 7908,
      "æłĸ": 7909,
      "çģ¾éļ¾": 7910,
      "ç³Ł": 7911,
      "åĬłåī§": 7912,
      "ç¨³å®ļçļĦ": 7913,
      "97": 7914,
      "æ¸ħçĲĨ": 7915,
      "èĵ¬": 7916,
      "è¿Ľé£Ł": 7917,
      "äººå¤§": 7918,
      "ç«ĭä½ĵ": 7919,
      "åħ´èµ·": 7920,
      "å·¥ä½ľèĢħ": 7921,
      "å¹´å¼Ģå§ĭ": 7922,
      "ä¸Ńå°ıåŃ¦": 7923,
      "æ·«": 7924,
      "è¿ĩé«ĺ": 7925,
      "çºªå¾ĭ": 7926,
      "åĩºåĶ®": 7927,
      "çĶ¨åĵģ": 7928,
      "æĭĮ": 7929,
      "åħ¶ä»ĸçļĦ": 7930,
      "å°¼äºļ": 7931,
      "æŃ»äºĨ": 7932,
      "èĻ¹": 7933,
      "æľīåħ³çļĦ": 7934,
      "å°±è¢«": 7935,
      "ong": 7936,
      "ç¬¬ä¸īæĸ¹": 7937,
      "able": 7938,
      "åĪ¶åº¦çļĦ": 7939,
      "æĪĲäº¤éĩı": 7940,
      "ç»ĵæł¸": 7941,
      "fl": 7942,
      "èĮ¨": 7943,
      "é¡¹ç¾½": 7944,
      "é¦ĸéĥ½": 7945,
      "å¾Ģå¾Ģæĺ¯": 7946,
      "ä¸ĬåŃ¦": 7947,
      "èĴ²": 7948,
      "å¼ķçĶ¨": 7949,
      "ç¯Ĩ": 7950,
      "åĽ¾ä¹¦é¦Ĩ": 7951,
      "èº²": 7952,
      "ä¸įæĥ³": 7953,
      "å´Ľ": 7954,
      "ä¸ºåħ¶": 7955,
      "æĹłéľĢ": 7956,
      "çļĦè§ĤçĤ¹": 7957,
      "ä¸Ģå¼Ģå§ĭ": 7958,
      "æĹ¶ç©º": 7959,
      "æŀľå®ŀ": 7960,
      "äºĮçº§": 7961,
      "éĵĥ": 7962,
      "è¶ĬæĿ¥è¶Ĭå¤ļçļĦ": 7963,
      "è¿ĽåĮĸ": 7964,
      "è½¼": 7965,
      "å®¹åĻ¨": 7966,
      "å°ĳçļĦ": 7967,
      "ä¿®æŃ£": 7968,
      "ä¼ļéĢłæĪĲ": 7969,
      "éĽĨä¸Ńåľ¨": 7970,
      "éĩĳéĴ±": 7971,
      "äººåĳĺçļĦ": 7972,
      "æī£éĻ¤": 7973,
      "åľ¨æĪĳä»¬": 7974,
      "ä¸įçĦ¶": 7975,
      "ç¿ħ": 7976,
      "è¯¾æľ¬": 7977,
      "åĪĽéĢłæĢ§": 7978,
      "èµ·è¯ī": 7979,
      "ç»ŀ": 7980,
      "ä¸Ģæľ¬": 7981,
      "ä¼ĺèī¯": 7982,
      "æĹ¢æĺ¯": 7983,
      "å´ĸ": 7984,
      "åĭĺ": 7985,
      "ä»ĸäººçļĦ": 7986,
      "é¡¾éĹ®": 7987,
      "æ¼Ķåıĺ": 7988,
      "çļĦäººä»¬": 7989,
      "åĨľäº§åĵģ": 7990,
      "æĶ¾åħ¥": 7991,
      "è¿ľçļĦ": 7992,
      "åķĨä¸ļéĵ¶è¡Į": 7993,
      "ç²ĺèĨľ": 7994,
      "ä¹Łåı¯èĥ½": 7995,
      "ava": 7996,
      "éªĦ": 7997,
      "çĶµç£ģ": 7998,
      "æ¶īåıĬåĪ°": 7999,
      "æĪĸåħ¶ä»ĸ": 8000,
      "ä»¥åħ¶": 8001,
      "èĬĴ": 8002,
      "æĬĹæĪĺ": 8003,
      "è¿Ļå¯¹": 8004,
      "èħĲè´¥": 8005,
      "éĴ¢çĲ´": 8006,
      "åĵ®åĸĺ": 8007,
      "å½¢å¼ıçļĦ": 8008,
      "æķ°åįģ": 8009,
      "æ£µ": 8010,
      "äººæľī": 8011,
      "ç»ĻæĪĳ": 8012,
      "èĩ´åĬĽäºİ": 8013,
      "ä¸įåĲĮäºİ": 8014,
      "åĿĲåľ¨": 8015,
      "æ°Ķè±¡": 8016,
      "çĶļèĩ³æĺ¯": 8017,
      "åĲİç»Ń": 8018,
      "Ġæ°´": 8019,
      "ial": 8020,
      "åĴĮç®¡çĲĨ": 8021,
      "åĨĪ": 8022,
      "åŃ¦è¯´": 8023,
      "æĿ¥è¿Ľè¡Į": 8024,
      "ä»£ä»·": 8025,
      "è¨Ģè¯Ń": 8026,
      "çľĭä¼¼": 8027,
      "æľĹè¯»": 8028,
      "2001": 8029,
      "åı¶çīĩ": 8030,
      "åĩºèĩª": 8031,
      "ä½¿ä¹ĭ": 8032,
      "ä¸ºä»£è¡¨": 8033,
      "æľ¬æ¬¡": 8034,
      "åıĹæįŁ": 8035,
      "åĢŁè´·": 8036,
      "ä¹ĭæĦı": 8037,
      "åŃ¦çĶŁçļĦåŃ¦ä¹ł": 8038,
      "ç»Ĩèĩ´": 8039,
      "æī©æķ£": 8040,
      "èīºæľ¯çļĦ": 8041,
      "æĢ§åĪ«": 8042,
      "åİŁæĿ¥çļĦ": 8043,
      "ĠåŃ¦çĶŁ": 8044,
      "ä¸įä¸Ģå®ļ": 8045,
      "èº¯": 8046,
      "åĩıèĤ¥": 8047,
      "Ġä¸įè¿ĩ": 8048,
      "ä¿®è¡Į": 8049,
      "æľīä¸Ģå®ļ": 8050,
      "ä¸Ģçº¿": 8051,
      "æľīåĬĽ": 8052,
      "å°¤ä¸º": 8053,
      "éĤ£æĺ¯": 8054,
      "ä½Ľæ³ķ": 8055,
      "åĳĬçŁ¥": 8056,
      "ä¹ĭäºº": 8057,
      "æłĩçļĦ": 8058,
      "ä¸ľæ±ī": 8059,
      "æ®ĸæ°ĳ": 8060,
      "indow": 8061,
      "åı¤åŁİ": 8062,
      "æģĲæĢķ": 8063,
      "ä¹ĭéĹ´çļĦåħ³ç³»": 8064,
      "72": 8065,
      "æĹ¥çļĦ": 8066,
      "åĲĦæľī": 8067,
      "åĽ°å¢ĥ": 8068,
      "åĩĨåĪĻ": 8069,
      "ä¸ĢèĪ¬æĿ¥è¯´": 8070,
      "å¥¸": 8071,
      "...\"": 8072,
      "äºİæŃ¤": 8073,
      "ä¸ºä¹ĭ": 8074,
      "èįīåİŁ": 8075,
      "è¶ĬåįĹ": 8076,
      "åĪĹåħ¥": 8077,
      "è¯¸å¦Ĥ": 8078,
      "åĨ¬å¤©": 8079,
      "äººæĢ§": 8080,
      "åİĨç¨ĭ": 8081,
      "æĶ¾ç½®": 8082,
      "æĹ¥å¸¸çĶŁæ´»": 8083,
      "ĠåĮĹäº¬": 8084,
      "è¾ĥå°ı": 8085,
      "çļĦä½ľåĵģ": 8086,
      "one": 8087,
      "ase": 8088,
      "éĺ¿æĭīä¼¯": 8089,
      "è¡°èĢģ": 8090,
      "çº§çļĦ": 8091,
      "è´Łèį·": 8092,
      "éĶĪ": 8093,
      "æºº": 8094,
      "è·Łè¸ª": 8095,
      "æĦıæĦ¿": 8096,
      "æº¶æ¶²": 8097,
      "çº³ç±³": 8098,
      "é«ĺå³°": 8099,
      "çĸ¯": 8100,
      "å»ºçŃĳçī©": 8101,
      "ä¸Ĭæĺ¯": 8102,
      "å¹´åľ¨": 8103,
      "æĺ¨": 8104,
      "åĨ³å¿ĥ": 8105,
      "è¿ĻéĩĮçļĦ": 8106,
      "æł½åŁ¹": 8107,
      "ä¸»è¦ģåĮħæĭ¬": 8108,
      "æĹ¥å¸¸çĶŁæ´»ä¸Ń": 8109,
      "äº¥": 8110,
      "éĩįç»Ħ": 8111,
      "åĬłåĿ¡": 8112,
      "ä¸Ńå°ıä¼ģä¸ļ": 8113,
      "æĸ°çĶŁåĦ¿": 8114,
      "ĠåĪĺ": 8115,
      "çļĦæĢ»": 8116,
      "ii": 8117,
      "å¹³è¡Į": 8118,
      "èĭĶ": 8119,
      "æķĻèĤ²æķĻåŃ¦": 8120,
      "æĸ¹ä½į": 8121,
      "è¡ĮæĺŁ": 8122,
      "è§Ĥçľĭ": 8123,
      "èĶĵ": 8124,
      "Ġæ¯Ķå¦Ĥ": 8125,
      "çļĦèĬ±": 8126,
      "æĪĲæķĪ": 8127,
      "ç¥Ī": 8128,
      "å®ĭæľĿ": 8129,
      "ies": 8130,
      "æĻ´": 8131,
      "å¼ºè¿«": 8132,
      "ä¹ŁéľĢè¦ģ": 8133,
      "èŃ¦æĥķ": 8134,
      "å¤«äºº": 8135,
      "å®¶åºŃæķĻèĤ²": 8136,
      "ä¸Ģéģĵ": 8137,
      "çĵ·åĻ¨": 8138,
      "çªģåıĺ": 8139,
      "è´µå·ŀ": 8140,
      "åıĹå®³": 8141,
      "ight": 8142,
      "åĽ°æī°": 8143,
      "çļĩåĲİ": 8144,
      "æĮ«æĬĺ": 8145,
      "æµ·ä¸Ĭ": 8146,
      "éĺ¶æ®µçļĦ": 8147,
      "ä¼ļçļĦ": 8148,
      "è¯Ńæ³ķ": 8149,
      "Ġat": 8150,
      "æľĢæľī": 8151,
      "åı¸ä»¤": 8152,
      "çº±": 8153,
      "éĻĦåĬł": 8154,
      "å¤©çĦ¶æ°Ķ": 8155,
      "å¼ĢäºĨ": 8156,
      "çº½çº¦": 8157,
      "åĪĽå§ĭ": 8158,
      "æĶ¹åıĺäºĨ": 8159,
      "çĻ¾åĪĨçĤ¹": 8160,
      "çĶŁæ´»æĸ¹å¼ı": 8161,
      "æķĪåĬĽ": 8162,
      "è¿Ļåı¥è¯Ŀ": 8163,
      "éĿ¶": 8164,
      ";\"": 8165,
      "æĺ¯çĶ±äºİ": 8166,
      "çļĦè¯Ĺ": 8167,
      "èµļéĴ±": 8168,
      "Ġå¾Īå¤ļ": 8169,
      "çļĦç»ĵæŀĦ": 8170,
      "æł·æľ¬": 8171,
      "éª¨è´¨": 8172,
      "çħ¤çĤŃ": 8173,
      "ä¸įåģľ": 8174,
      "å»ºäºİ": 8175,
      "éĢĤéĩı": 8176,
      "Ġä¸ĭ": 8177,
      "èħ°æ¤İ": 8178,
      "ak": 8179,
      "è¾ĥå¥½çļĦ": 8180,
      "éĻĮçĶŁ": 8181,
      "å°±å¿ħé¡»": 8182,
      "53": 8183,
      "æµģå¤±": 8184,
      "èĤĨ": 8185,
      "çłĶç©¶åıĳçİ°": 8186,
      "åĿł": 8187,
      "å²ģæĹ¶": 8188,
      "å¯¼å¼¹": 8189,
      "è¿ĺåİŁ": 8190,
      "åĦ¿ç«¥çļĦ": 8191,
      "å·ŀå¸Ĥ": 8192,
      "æ»©": 8193,
      "æĹ¨åľ¨": 8194,
      "èĭıè½¼": 8195,
      "äººçĶŁçļĦ": 8196,
      "è§ģäºİ": 8197,
      "å¤©åŃĲ": 8198,
      "è§£åĨ³äºĨ": 8199,
      "èį·åħ°": 8200,
      "æĪĳä»¬åºĶè¯¥": 8201,
      "è¾ĥå¥½": 8202,
      "æĩĴ": 8203,
      "äººéĻħ": 8204,
      "å¹³å¸¸": 8205,
      "éļ¾éģĵ": 8206,
      "èī°éļ¾": 8207,
      "ber": 8208,
      "å¯¼èĩ´äºĨ": 8209,
      "éģĵæķĻ": 8210,
      "æī®æ¼Ķ": 8211,
      "åĲĽä¸»": 8212,
      "è¯Ģ": 8213,
      "ä¸įåĪ©äºİ": 8214,
      "åĲĳä¸ĭ": 8215,
      "ä¸ĢçĻ¾": 8216,
      "è¯ŃéŁ³": 8217,
      "äººæīĢ": 8218,
      "å¾Ĺä¸įåĪ°": 8219,
      "ç¼ħ": 8220,
      "è¿Ļåº§": 8221,
      "ä»ĸè®¤ä¸º": 8222,
      "ical": 8223,
      "ç§¯æŀģçļĦ": 8224,
      "åİĤåķĨ": 8225,
      "èĤĽéĹ¨": 8226,
      "å¾Īåı¯èĥ½": 8227,
      "æ¼Ķå¥ı": 8228,
      "å¥¢": 8229,
      "åĲĪä¸Ģ": 8230,
      "æ³¨åħ¥": 8231,
      "æ¢³çĲĨ": 8232,
      "è¾¹çķĮ": 8233,
      "åĩºç§Ł": 8234,
      "Ġlt": 8235,
      "åĽĽç§į": 8236,
      "åħ¥æīĭ": 8237,
      "åĨĻåĩº": 8238,
      "åĪĽéĢłäºĨ": 8239,
      "éĴ¦": 8240,
      "çĶ»çļĦ": 8241,
      "æĤłä¹ħ": 8242,
      "æ¶Īæŀģ": 8243,
      "éķ¿è¾¾": 8244,
      "çĽ®åīįçļĦ": 8245,
      "åı¯ä½¿": 8246,
      "sc": 8247,
      "ä½¿çĶ¨æĿĥ": 8248,
      "å¯¹ç«ĭ": 8249,
      "ç»Łä¸ĢçļĦ": 8250,
      "æ¡¥æ¢ģ": 8251,
      "çŃīåĽłç´ł": 8252,
      "å®ļä»·": 8253,
      "åĿļåĨ³": 8254,
      "86": 8255,
      "ä¸¤ä½į": 8256,
      "ä¸Ģçľĭ": 8257,
      "é«ĺåİŁ": 8258,
      "ä½ľäºĨ": 8259,
      "è¡°ç«Ń": 8260,
      "ä¸Īå¤«": 8261,
      "å´Ľèµ·": 8262,
      "ä»İä¸ļ": 8263,
      "ä¸ŃåĽ½çī¹èī²": 8264,
      "ä¹Łæ²¡": 8265,
      "åĿĩä¸º": 8266,
      "è¯ºè´Ŀå°Ķ": 8267,
      "ä¸Ģæµģ": 8268,
      "è¿ģç§»": 8269,
      "\"ãĢĬ": 8270,
      "ä¸įåŃĺåľ¨": 8271,
      "ç²ĴåŃĲ": 8272,
      "èī¾æ»ĭçĹħ": 8273,
      "ç¥ŀç»ıç³»ç»Ł": 8274,
      "ä¿ĿéĻ©åħ¬åı¸": 8275,
      "èĲ½åľ°": 8276,
      "æĮģä¹ħ": 8277,
      "å¥³æĢ§çļĦ": 8278,
      "å±ĳ": 8279,
      "çļĦæľĢä½³": 8280,
      "ä½Ĩåį´": 8281,
      "æ½ľèĥ½": 8282,
      "ä¸ªèĤ¡": 8283,
      "å¹²ç»Ĩèĥŀ": 8284,
      "ä¼¦æķ¦": 8285,
      "ä¸įå¦¨": 8286,
      "æ±°": 8287,
      "åı¯ä»¥ä»İ": 8288,
      "æĢİä¹Īæł·": 8289,
      "åħ¬ä¼Ĺåı·": 8290,
      "æĪªèĩ³": 8291,
      "ä¸ŃçŃī": 8292,
      "éĥ½è¢«": 8293,
      "__": 8294,
      "ä½ľä¸ºä¸Ģç§į": 8295,
      "æĪĲä¸ºä¸Ģä¸ª": 8296,
      "è¿ĺæľīä¸Ģä¸ª": 8297,
      "ä½Ĩè¿Ļ": 8298,
      "å¤ıå¤©": 8299,
      "éĽģ": 8300,
      "è¿ĩå¤§": 8301,
      "æĮĩç¤º": 8302,
      "è°ĪåĪ¤": 8303,
      "ä»¿ä½Ľ": 8304,
      "åĲ¬åĬĽ": 8305,
      "è¿Ļæĺ¯åĽłä¸º": 8306,
      "èľ¡": 8307,
      "å¦Ĩ": 8308,
      "ç«ĭåĪ»": 8309,
      "åĨľèį¯": 8310,
      "Ġim": 8311,
      "ä¹ĭä»¥": 8312,
      "Ġæĸĩ": 8313,
      "æķĻè®Ń": 8314,
      "å°±æĬĬ": 8315,
      "èªīä¸º": 8316,
      "çĬ¹å¤ª": 8317,
      "åıĹåĪ°äºĨ": 8318,
      "ql": 8319,
      "ä¸įç¡®å®ļ": 8320,
      "åİŁæ²¹": 8321,
      "ä¿®è®¢": 8322,
      "æ±¡æŁĵçī©": 8323,
      "æīĢè¯´": 8324,
      "çŃīå¤ļç§į": 8325,
      "åıªä¼ļ": 8326,
      "çļĦæľ¬": 8327,
      "æ¯Ķäºļ": 8328,
      "è¦ģçĶ¨": 8329,
      "ĠçŃĶæ¡Ī": 8330,
      "åħīæĺİ": 8331,
      "05": 8332,
      "çĶµç½ĳ": 8333,
      "ç¿Ķ": 8334,
      "æ¹¿åº¦": 8335,
      "å¤ļåªĴä½ĵ": 8336,
      "ä¸ŃåĽ½ç»ıæµİ": 8337,
      "çļĦä¹¦": 8338,
      "æĭĽèģĺ": 8339,
      "æłĩè¯Ĩ": 8340,
      "åĽ½å®¶åĴĮ": 8341,
      "éĿŀå¸¸éĩįè¦ģ": 8342,
      "çĽĨèħĶ": 8343,
      "å¤§èĥĨ": 8344,
      "é»Ħå¸Ŀ": 8345,
      "æ¯Ĵåĵģ": 8346,
      "äºĭä¸ļåįķä½į": 8347,
      "éĻ¶çĵ·": 8348,
      "æĮĽ": 8349,
      "çļĦå¢ŀéķ¿": 8350,
      "åĲ»": 8351,
      "åĪĨæĪĲ": 8352,
      "èİİ": 8353,
      "æĸ¹éĴĪ": 8354,
      "é©³": 8355,
      "çļĦæĬķèµĦ": 8356,
      "å¢ŀé«ĺ": 8357,
      "åºĶæ³¨æĦı": 8358,
      "èĪ¶": 8359,
      "ä¾ĽåºĶéĵ¾": 8360,
      "åı²æĸĻ": 8361,
      "ä¸ļä¸»": 8362,
      "é«ĺç«¯": 8363,
      "æŃ£ä¹ī": 8364,
      "åĬłæ·±": 8365,
      "çĹħåİŁ": 8366,
      "åĩłçİĩ": 8367,
      "åľ¨æĪĳ": 8368,
      "çĶµæ°Ķ": 8369,
      "çĦ¶åĲİåĨį": 8370,
      "æľīäºĽäºº": 8371,
      "çħ§æĺİ": 8372,
      "æģ°æģ°": 8373,
      "dr": 8374,
      "åĲĦç§įåĲĦ": 8375,
      "æ¬§ç¾İ": 8376,
      "é»ıèĨľ": 8377,
      "åİ»éĻ¤": 8378,
      "äº¤éĢļäºĭæķħ": 8379,
      "å½±åĵįäºĨ": 8380,
      "æİĪè¯¾": 8381,
      "è¿Ľåİ»": 8382,
      "è¿Ļé¦ĸ": 8383,
      "åĨĻäºĨ": 8384,
      "éī´åĪ«": 8385,
      "é¸¦": 8386,
      "æĬĢæľ¯åĴĮ": 8387,
      "æ§Ľ": 8388,
      "åŀĴ": 8389,
      "èµĦæľ¬ä¸»ä¹ī": 8390,
      "æ¯Ķçī¹": 8391,
      "éľīç´ł": 8392,
      "æīĢè¿°": 8393,
      "éĺ³æĢ§": 8394,
      "åĩŃåĢŁ": 8395,
      "Ġå°±": 8396,
      "æľīä¸¤ä¸ª": 8397,
      "å¯¼åħ¥": 8398,
      "åľ¨è¿Ļä¸Ģ": 8399,
      "åģļäºĭ": 8400,
      "å¤ªå¤§": 8401,
      "ace": 8402,
      "çļĦèĢģ": 8403,
      "Ġct": 8404,
      "åľ¨å¯¹": 8405,
      "æ¡ĵ": 8406,
      "ç¢ĺ": 8407,
      "ä»ķ": 8408,
      "ä¸įæ»¡": 8409,
      "æłĩåĩĨåĮĸ": 8410,
      "æ¸´æľĽ": 8411,
      "é©¬åħĭæĢĿä¸»ä¹ī": 8412,
      "æľīåĪ©": 8413,
      "ll": 8414,
      "æĽ´éĩįè¦ģçļĦæĺ¯": 8415,
      "åĪĨåĪ«æĺ¯": 8416,
      "yst": 8417,
      "Ġare": 8418,
      "ç»ĪæŃ¢": 8419,
      "æ¯ıæľĪ": 8420,
      "çİ¯å¢ĥä¿ĿæĬ¤": 8421,
      "ç§ĳæĻ®": 8422,
      "åĲ¬è¯´": 8423,
      "ä¿Ĺç§°": 8424,
      "åĢ¦": 8425,
      "Ġz": 8426,
      "é«ĺåħ´": 8427,
      "æ²»çĸĹçļĦ": 8428,
      "æİĪäºĪ": 8429,
      "æļĹç¤º": 8430,
      "port": 8431,
      "çĥ¹": 8432,
      "ä¿Ŀå®Ī": 8433,
      "æ¢µ": 8434,
      "åĴı": 8435,
      "\"?": 8436,
      "è¶ģ": 8437,
      "åģļä»Ģä¹Ī": 8438,
      "åĺĽ": 8439,
      "åľ¨åħ¨åĽ½": 8440,
      "ä¹ĭæĪĺ": 8441,
      "åģļå¾Ĺ": 8442,
      "éĩĳèŀįåį±æľº": 8443,
      "çļĦæĹł": 8444,
      "ä¸įå®¹æĺĵ": 8445,
      "åŃĹæ¯į": 8446,
      "\"(ãĢĬ": 8447,
      "æķĻç§ĳ": 8448,
      "å®ŀçī©": 8449,
      "Ġåĳ¨": 8450,
      "åħ®": 8451,
      "çĶ¨çĶµ": 8452,
      "ov": 8453,
      "ä¸ºä¸»è¦ģ": 8454,
      "å¥¥è¿Ĳ": 8455,
      "å¤įèĭı": 8456,
      "çº¿æĿ¡": 8457,
      "çĢ": 8458,
      "å¤ļå½©": 8459,
      "ä¸Ģéĥ¨": 8460,
      "æ°ĳä¿Ĺ": 8461,
      "åĳĺçļĦ": 8462,
      "æĪĸèĢħè¯´": 8463,
      "åĪĽç«ĭ": 8464,
      "åħħåĪĨçļĦ": 8465,
      "èĬ±è´¹": 8466,
      "Ġ2017": 8467,
      "åįģåŃĹ": 8468,
      "çĥŃæ°´": 8469,
      "Ġä¼ģä¸ļ": 8470,
      "åŃĺåľ¨äºİ": 8471,
      "çļĦè´¨éĩı": 8472,
      "éħ±": 8473,
      "Ġ30": 8474,
      "æ½Ń": 8475,
      "Ġä¸ĥ": 8476,
      "éĹ´çĽĺ": 8477,
      "è°ĥçĶ¨": 8478,
      "åŃ¦ä¸ļ": 8479,
      "åĿĩæľī": 8480,
      "èīĺ": 8481,
      "éĿĴéĵľ": 8482,
      "æľĢé«ĺçļĦ": 8483,
      "å¼Ģåħ³": 8484,
      "çĪ¸çĪ¸å¦Īå¦Ī": 8485,
      "è¥¿åĮ»": 8486,
      "ä¸ªçĻ¾åĪĨçĤ¹": 8487,
      "çĿ¾": 8488,
      "æĬķæľº": 8489,
      "è®²è¯Ŀ": 8490,
      "2002": 8491,
      "ork": 8492,
      "åıĳéŁ³": 8493,
      "é£İæ¹¿": 8494,
      "çľ¼åħī": 8495,
      "äººéĹ´": 8496,
      "å®īéĿĻ": 8497,
      "çļĦç§ĳåŃ¦": 8498,
      "å°ĳæķ°æ°ĳæĹı": 8499,
      "åĿİ": 8500,
      "éĤ®ä»¶": 8501,
      "ä¸įæĪĲ": 8502,
      "æºĲå¤´": 8503,
      "å¼Ģæĭĵ": 8504,
      "Ġä¸»è¦ģ": 8505,
      "åİŁæĸĩ": 8506,
      "æİīäºĨ": 8507,
      "ft": 8508,
      "min": 8509,
      "ä¸īæ¬¡": 8510,
      "éļĲèĹı": 8511,
      "ĠåĽ½å®¶": 8512,
      "man": 8513,
      "éĢ¾": 8514,
      "ä¾ĽåºĶåķĨ": 8515,
      "ç¾İå¥½çļĦ": 8516,
      "èĩ´çĻĮ": 8517,
      "åĢ¾åĲ¬": 8518,
      "åĿļå®ļ": 8519,
      "ä¹³å¤´": 8520,
      "æķ°æį®æĺ¾ç¤º": 8521,
      "ç»ĳ": 8522,
      "æī«æıı": 8523,
      "çļĦçĶŁåĳ½": 8524,
      "ä¸Ģåĳ¨": 8525,
      "è£¹": 8526,
      "ä½ĵæ£Ģ": 8527,
      "æµģæ°´": 8528,
      "æ¿Ģæĥħ": 8529,
      "ä»¥èĩ´": 8530,
      "å¼ĤæĢ§": 8531,
      "ence": 8532,
      "çĦ¦çĤ¹": 8533,
      "åĭī": 8534,
      "æĢĿæĥ³çļĦ": 8535,
      "ä¸Ŀç»¸": 8536,
      "æłĳæľ¨": 8537,
      "æµ·åįĹ": 8538,
      "çī©è´¨çļĦ": 8539,
      "éĻ¤æŃ¤ä¹ĭå¤ĸ": 8540,
      "æ²ª": 8541,
      "å®½å®¹": 8542,
      "ä¸Ģåº¦": 8543,
      "åĽłåħ¶": 8544,
      "ä¾µçķ¥": 8545,
      "å¤§äºº": 8546,
      "å¹³å®ī": 8547,
      "æ²¸": 8548,
      "å¤ªåĲİ": 8549,
      "æĸĩæĺİçļĦ": 8550,
      "äºĨä»ĸ": 8551,
      "ä¸¥è°¨": 8552,
      "å¤ĸåĩº": 8553,
      "ä¾Ŀæīĺ": 8554,
      "ç¥¨æį®": 8555,
      "çĶŁäºİ": 8556,
      "æ¶ħ": 8557,
      "éĩıåĮĸ": 8558,
      "éĥ¨éĹ¨çļĦ": 8559,
      "çľŁå®ŀçļĦ": 8560,
      "åİŁåĳĬ": 8561,
      "é¥²åħ»": 8562,
      "åĲįä¹ī": 8563,
      "æīĢä»¥è¯´": 8564,
      "è¡Ģæłĵ": 8565,
      "her": 8566,
      "çİ°æľīçļĦ": 8567,
      "æ¼Ĥäº®": 8568,
      "çĸ±": 8569,
      "æĹ¶è¦ģ": 8570,
      "åĲĮäºĭ": 8571,
      "é¢ģå¸ĥ": 8572,
      "è¯ĪéªĹ": 8573,
      "åįİå¤ı": 8574,
      "Ġä»Ģä¹Īæĺ¯": 8575,
      "å¹³åİŁ": 8576,
      "æľįåĬ¡ä¸ļ": 8577,
      "åº¦åĴĮ": 8578,
      "ä¸įç¬¦åĲĪ": 8579,
      "ç³»æķ°": 8580,
      "èĦĬæŁ±": 8581,
      "å¦ĤæŀľæĪĳä»¬": 8582,
      "è¡Įé©¶": 8583,
      "Ġdo": 8584,
      "å°§": 8585,
      "æľ¬åľŁ": 8586,
      "ä¾¿å®ľ": 8587,
      "æľīè¿ĩ": 8588,
      "è¡¬": 8589,
      "è¶Ĭå¥½": 8590,
      "é¢¤": 8591,
      "éĺ¿å°Ķ": 8592,
      "æľºèĥ½": 8593,
      "éĴī": 8594,
      "åľ¨æĸ°": 8595,
      "åľ°åĽ¾": 8596,
      "å¤ĸçº¿": 8597,
      "åĩĿèģļ": 8598,
      "are": 8599,
      "è¿Ļä¸¤ç§į": 8600,
      "çłĶç©¶ä¸Ńå¿ĥ": 8601,
      "å®¶éķ¿çļĦ": 8602,
      "è°£": 8603,
      "?(": 8604,
      "èĢĥæŁ¥": 8605,
      "åĲ¯ç¤º": 8606,
      "èĬĤçľģ": 8607,
      "ç«ĭè¶³": 8608,
      "ä¸įç®¡æĺ¯": 8609,
      "å±±çļĦ": 8610,
      "å¤§å®¶éĥ½": 8611,
      "éĻĲåº¦": 8612,
      "èĪĴæľį": 8613,
      "ĠåŃ¦": 8614,
      "å¼ĢåıĳåķĨ": 8615,
      "ä¸Ģå¤§": 8616,
      "æµĭå®ļ": 8617,
      "å½ĵæĪĳä»¬": 8618,
      "Ġman": 8619,
      "åĩºèº«": 8620,
      "çļĦåĪĨæŀĲ": 8621,
      "æİł": 8622,
      "01": 8623,
      "èĬ±åĽŃ": 8624,
      "æ²¿æµ·": 8625,
      "çī©ç§į": 8626,
      "å¤ªå®Ĺ": 8627,
      "çł´è£Ĥ": 8628,
      "ä¿ĺ": 8629,
      "æĬ¥éħ¬": 8630,
      "çļĤ": 8631,
      "å°±ç®Ĺ": 8632,
      "æĭ¿åĪ°": 8633,
      "æł¹æºĲ": 8634,
      "é¥®æ°´": 8635,
      "ä¸İäºº": 8636,
      "éĢıè¿ĩ": 8637,
      "åĨłçĬ¶": 8638,
      "èĩªè¡Įè½¦": 8639,
      "å¾·èĤ²": 8640,
      "åĴĮåŃ©åŃĲ": 8641,
      "åĩłæ¬¡": 8642,
      "çĽ¸ç»§": 8643,
      "ĠæķĻå¸Ī": 8644,
      ").": 8645,
      "èĩªåŃ¦": 8646,
      "çĶ±æŃ¤åı¯è§ģ": 8647,
      "åı¯è¾¾": 8648,
      "åĬłå¯Ĩ": 8649,
      "çĶŁéķ¿åıĳèĤ²": 8650,
      "æĢ§ä¸İ": 8651,
      "ä½Ĩä»ĸ": 8652,
      "Ġ2018": 8653,
      "ä¸įæŃ¢": 8654,
      "éĥ¨éķ¿": 8655,
      "æŁ¯": 8656,
      "æĦıä¹īä¸ĬçļĦ": 8657,
      "ä¸ŃåĮ»èį¯": 8658,
      "éĻĲäºİ": 8659,
      "æ±īä»£": 8660,
      "å§¬": 8661,
      "éĽķåĪ»": 8662,
      "å¦Ĥæŀľæľī": 8663,
      "åı¯ä»¥è¯´æĺ¯": 8664,
      "åľºåĲĪ": 8665,
      "å¼§": 8666,
      "è¿Ĳç®Ĺ": 8667,
      "62": 8668,
      "çĶ¸": 8669,
      "åĿª": 8670,
      "è¯¾æĹ¶": 8671,
      "èĤĿçĤİ": 8672,
      "ä¼´éļıçĿĢ": 8673,
      "åľ¨å¤ĸ": 8674,
      "ock": 8675,
      "éĹ´éļĶ": 8676,
      "æĩĪ": 8677,
      "åĽ½æ°ĳåħļ": 8678,
      "ãĢĭ:": 8679,
      "è¯Ŀè¯´": 8680,
      "åĪ¶æĪĲ": 8681,
      "æľīä¸ī": 8682,
      "æ²§": 8683,
      "ich": 8684,
      "å±¯": 8685,
      "åĲĪéĩĳ": 8686,
      "å®¶ä¹¡": 8687,
      "æ±īæĹı": 8688,
      "è¦ģæ±ĤçļĦ": 8689,
      "éĺ²æ°´": 8690,
      "æī§æĶ¿": 8691,
      "çļĦä¸»é¢ĺ": 8692,
      "åĲĮä¸Ģä¸ª": 8693,
      "æĪ·å¤ĸ": 8694,
      "åĽĬèĤ¿": 8695,
      "äº¤ä»ĺ": 8696,
      "æĤ²åī§": 8697,
      "åĩ¹": 8698,
      "éķľå¤´": 8699,
      "çŀ¬éĹ´": 8700,
      "ç¼¸": 8701,
      "ä½ľçĶ¨çļĦ": 8702,
      "ä¸İæŃ¤åĲĮæĹ¶": 8703,
      "åĨĢ": 8704,
      "åħ¬åĳĬ": 8705,
      "æĺ¾çİ°": 8706,
      "æĪĳè¦ģ": 8707,
      "æģ¶åĮĸ": 8708,
      "éĨĭ": 8709,
      "ĠçŃī": 8710,
      "æĳ©æĵ¦": 8711,
      "ost": 8712,
      "å¹³ç¨³": 8713,
      "å¾Ĺå¾Ī": 8714,
      "èı©æıĲ": 8715,
      "çļĦåħ¨": 8716,
      "åħīä¼ı": 8717,
      "éŀŃ": 8718,
      "54": 8719,
      "çĶŁæ¶¯": 8720,
      "é¥±åĴĮ": 8721,
      "åģ¶çĦ¶": 8722,
      "åįģå¹´ä»£": 8723,
      "å¼ĢèĬ±": 8724,
      "åģľè½¦": 8725,
      "92": 8726,
      "èµ°äºĨ": 8727,
      "è·¯çĶ±": 8728,
      "ç¼ĸçłģ": 8729,
      "åĩŃè¯ģ": 8730,
      "äº¢": 8731,
      "åĴĮå¯¹": 8732,
      "æľŁåĪĬ": 8733,
      "éģ¿åŃķ": 8734,
      "mac": 8735,
      "ç¾²": 8736,
      "åĳĬè¯īæĪĳä»¬": 8737,
      "è¡Ĺéģĵ": 8738,
      "åŃ¦çĶŁåŃ¦ä¹ł": 8739,
      "æķĻå¯¼": 8740,
      "ä¸¾æİª": 8741,
      "éĻĨç»Ń": 8742,
      "å©´å¹¼åĦ¿": 8743,
      "åĽ½éĺ²": 8744,
      "å¹´åĪĿ": 8745,
      "åıªæľīåľ¨": 8746,
      "é¦¨": 8747,
      "æİĴæ°´": 8748,
      "é¹°": 8749,
      "æķħå®«": 8750,
      "èĤĿçĻĮ": 8751,
      "äº¤æĺĵæīĢ": 8752,
      "çļĦå¯¹è±¡": 8753,
      "åŃ¤çĭ¬": 8754,
      "åĩ¿": 8755,
      "é£Łåĵģå®īåħ¨": 8756,
      "è¿ĩåİ»çļĦ": 8757,
      "lin": 8758,
      "è´¼": 8759,
      "åĬ¨çļĦ": 8760,
      "77": 8761,
      "å¡Į": 8762,
      "è¿Ļåľº": 8763,
      "ĠçĶ±": 8764,
      "ä¸įå®¹": 8765,
      "è´¨éĩıçļĦ": 8766,
      "èį£èªī": 8767,
      "çļĦèĩªçĦ¶": 8768,
      "åĪ°å¤Ħ": 8769,
      "æŃ£å¥½": 8770,
      "è¶³çĲĥ": 8771,
      "çŁ¥è¯ĨçĤ¹": 8772,
      "çİĭåĽ½": 8773,
      "94": 8774,
      "æ³ķäºº": 8775,
      "åıĳçİ°çļĦ": 8776,
      "è°Ĭ": 8777,
      "çľ¼éķľ": 8778,
      "æĬĬèĩªå·±": 8779,
      "kçº¿": 8780,
      "åĪĹä¸º": 8781,
      "çī¡": 8782,
      "æĲŃå»º": 8783,
      "çĨŁç»ĥ": 8784,
      "ä¹ĻèĤĿ": 8785,
      "åĪĨçļĦ": 8786,
      "åĲĵ": 8787,
      "ä¸´åºĬä¸Ĭ": 8788,
      "åįļå®¢": 8789,
      "æĮĩå¯¼ä¸ĭ": 8790,
      "åĨ·åį´": 8791,
      "å·®ä¸įå¤ļ": 8792,
      "çĳ°": 8793,
      "çº¯ç²¹": 8794,
      "ä¸Ńå¤ĸ": 8795,
      "éĹ¨æ§Ľ": 8796,
      "ä¸įæĺİ": 8797,
      "è¿Ļæł·ä¸Ģ": 8798,
      "Ġby": 8799,
      "æ³ķåĪ¶": 8800,
      "åıĪèĥ½": 8801,
      "è¯¢éĹ®": 8802,
      "äºĨè®¸å¤ļ": 8803,
      "ç»ĵèĬĤ": 8804,
      "åĲ¯èĴĻ": 8805,
      "åĴ±ä»¬": 8806,
      "å¯ħ": 8807,
      "å¥īçĮ®": 8808,
      "æĮĩåĲĳ": 8809,
      "å¼Ģå§ĭäºĨ": 8810,
      "å®¶éķ¿ä»¬": 8811,
      "è¿Ļæľ¬ä¹¦": 8812,
      "åĵģå¾·": 8813,
      "çļĦæľĢé«ĺ": 8814,
      "èĥ½ä¸įèĥ½": 8815,
      "åĿĩåı¯": 8816,
      "é¢Īéĥ¨": 8817,
      "ä¸ŀ": 8818,
      "äº§å¦ĩ": 8819,
      "åıįä¹ĭ": 8820,
      "åĭĭ": 8821,
      "æł¸ç®Ĺ": 8822,
      "æ·¤": 8823,
      "è¿ĻäºĽéĹ®é¢ĺ": 8824,
      "ä»ħæľī": 8825,
      "ä¸ºä»Ģä¹Īè¦ģ": 8826,
      "æĬķéĻį": 8827,
      "æĿĲæĸĻçļĦ": 8828,
      "æĺ¯äººç±»": 8829,
      "å§ļ": 8830,
      "ä¸ĭæ»ĳ": 8831,
      "æī¿è½½": 8832,
      "å®ĥåľ¨": 8833,
      "æľªå¿ħ": 8834,
      "çĽĳæĬ¤": 8835,
      "è¡Ķæİ¥": 8836,
      "ä¸įä¸Ģ": 8837,
      "ä¾ĭå¤ĸ": 8838,
      "åıĺåĮĸçļĦ": 8839,
      "å¼ĺæī¬": 8840,
      "web": 8841,
      "é¢Ĩè¢ĸ": 8842,
      "çļĦæľĭåıĭ": 8843,
      "æĶ¯æ°Ķç®¡": 8844,
      "èħ¹çĹĽ": 8845,
      "ç¥ŀçļĦ": 8846,
      "å¤ļäºº": 8847,
      "èĤĮçĺ¤": 8848,
      "çĪ»": 8849,
      "åĴĮæĸ¹æ³ķ": 8850,
      "æĪĳä¹Ł": 8851,
      "æĬ¥çº¸": 8852,
      "çĶĺèĤĥ": 8853,
      "çĶ¨æ°´": 8854,
      "ign": 8855,
      "å®«é¢ĪçĻĮ": 8856,
      "ä¿¯": 8857,
      "åıĳå±ķåĴĮ": 8858,
      "åĪĿå§ĭ": 8859,
      "å¤Ħå¤Ħ": 8860,
      "æĹłå½¢": 8861,
      "æĴŃç§į": 8862,
      "åħħåĪĨåĪ©çĶ¨": 8863,
      "è´¬åĢ¼": 8864,
      "ld": 8865,
      "ç³ľ": 8866,
      "ç«ĭæĸ¹": 8867,
      "åľ¨åĨħçļĦ": 8868,
      "ä¸ŃæĸŃ": 8869,
      "çŃīæĸ¹éĿ¢çļĦ": 8870,
      "è¯¥å¦Ĥä½ķ": 8871,
      "ä¾Ŀæ¬¡": 8872,
      "è¾©è¯ģ": 8873,
      "ä¸ºæł¸å¿ĥ": 8874,
      "ä¸Ģéģį": 8875,
      "åħ³ç¾½": 8876,
      "èĦĳè¡Ģç®¡": 8877,
      "å´ĩæĭľ": 8878,
      "çļĦæķ°éĩı": 8879,
      "ç¨İçİĩ": 8880,
      "åħ¶å®ŀæĺ¯": 8881,
      "ä½łåľ¨": 8882,
      "ä½łå°±": 8883,
      "æ¥·": 8884,
      "ç¼ļ": 8885,
      "Ġæĺİ": 8886,
      "èħĲèļĢ": 8887,
      "å¼ĢåĪĽ": 8888,
      "æĽ´å¿«": 8889,
      "ç¤¾ä¿Ŀ": 8890,
      "åĪĨå¼Ģ": 8891,
      "æ¾Ħ": 8892,
      "èº«ä½ĵåģ¥åº·": 8893,
      "å®īåħ¨æĢ§": 8894,
      "æĮ½": 8895,
      "éº»éĨī": 8896,
      "å°ıåŀĭ": 8897,
      "ä¸Ģä¸ªæľĪ": 8898,
      "è¿Ĳæ²³": 8899,
      "è¿Ĳè½¬": 8900,
      "å°±è¯Ĭ": 8901,
      "èĤ¡éª¨å¤´": 8902,
      "åĬĽåŃ¦": 8903,
      "è¥¿æ±ī": 8904,
      "ä¹Ĳè¶£": 8905,
      "èį¯çī©æ²»çĸĹ": 8906,
      "indows": 8907,
      "æĿľçĶ«": 8908,
      "åī©ä½Ļ": 8909,
      "æ°¨éħ¸": 8910,
      "éļ¾åħį": 8911,
      "åħ¨éĿ¢çļĦ": 8912,
      "ä¼ļå¼ķèµ·": 8913,
      "æĹ¥æĬ¥": 8914,
      "è§ģè§£": 8915,
      "çļĦäººç¾¤": 8916,
      "è¿Ľåħ¥äºĨ": 8917,
      "ä»ĳ": 8918,
      "æĪĳä»¬éľĢè¦ģ": 8919,
      "ä¸įèĤ²": 8920,
      "è§ĦçŁ©": 8921,
      "çłĶç©¶èĢħ": 8922,
      "åħļåĳĺ": 8923,
      "æĹ¥æľ¬çļĦ": 8924,
      "ä½ĵç³»çļĦ": 8925,
      "æĹ¶éĹ´åĴĮ": 8926,
      "åĳĪçİ°åĩº": 8927,
      "da": 8928,
      "å¤©å¤©": 8929,
      "ä¼łæŁĵçĹħ": 8930,
      "çļĦèĮĥåĽ´": 8931,
      "çĹī": 8932,
      "æģ¶å¿ĥ": 8933,
      "ä¸įæĦ¿æĦı": 8934,
      "è¡ĢçĹĩ": 8935,
      "æĬ¥èŃ¦": 8936,
      "ata": 8937,
      "æĮĳéĢī": 8938,
      "è§Ĥèµı": 8939,
      "è¨Ģä¹ĭ": 8940,
      "èĢį": 8941,
      "å¤§éĥ½": 8942,
      "éĽĨåĲĪ": 8943,
      "çİ¯å¢ĥä¸ĭ": 8944,
      "èĪĨè®º": 8945,
      "Ġä¾ĭ": 8946,
      "ä»Ģä¹ĪæĹ¶åĢĻ": 8947,
      "è®²çļĦ": 8948,
      "ans": 8949,
      "å±ĪåİŁ": 8950,
      "éĴ¥": 8951,
      "éĺ¶å±Ĥ": 8952,
      "è¡ĢèĦĤ": 8953,
      "æĪĲè¯Ń": 8954,
      "ä¸ĭä¸Ģ": 8955,
      "æ·¹": 8956,
      "æĦıè¯ĨçļĦ": 8957,
      "çļĦä¸Ĭ": 8958,
      "Ġä¾ĭå¦Ĥ": 8959,
      "èĢ³æľµ": 8960,
      "çªĹåı£": 8961,
      "æ²¡æľīä»Ģä¹Ī": 8962,
      "æĢ»çĲĨ": 8963,
      "ide": 8964,
      "ä¹ĭæĥħ": 8965,
      "ç¾İæ´²": 8966,
      "èĢĥéªĮ": 8967,
      "æĬĢèīº": 8968,
      "éĴĵ": 8969,
      "æİ¨çĲĨ": 8970,
      "çľĭäºĨ": 8971,
      "åŃ¦çĶŁä»¬": 8972,
      "ç§ī": 8973,
      "éļıä¾¿": 8974,
      "æĹłç©·": 8975,
      "çļĦäººåĳĺ": 8976,
      "æ°´è´¨": 8977,
      "çŁ®": 8978,
      "åı¯ä»¥å¸®åĬ©": 8979,
      "åħĪçĶŁçļĦ": 8980,
      "éħįæĸ¹": 8981,
      "gr": 8982,
      "çļĦåį±å®³": 8983,
      "éķ¿ä¹ħ": 8984,
      "ä¼ĳéĹ²": 8985,
      "äºīè®º": 8986,
      "çĺ¾": 8987,
      "ns": 8988,
      "æľīä¸¤": 8989,
      "76": 8990,
      "éģĹæĨ¾": 8991,
      "æ¯ĴæĢ§": 8992,
      "å°¿éħ¸": 8993,
      "åĩıéĢĢ": 8994,
      "89": 8995,
      "é¢ĺçļĦ": 8996,
      "æłĭ": 8997,
      "æįŁåĿı": 8998,
      "å¦Ĥæŀľåľ¨": 8999,
      "åĽłä¸ºå®ĥ": 9000,
      "èĩªåı¤": 9001,
      "åħ¶æīĢ": 9002,
      "æĪĺèĥľ": 9003,
      "æĺĵäºİ": 9004,
      "çŀ»": 9005,
      "åĩıå¼±": 9006,
      "çľĭåĪ°çļĦ": 9007,
      "æµ·æĭĶ": 9008,
      "è¡°éĢĢ": 9009,
      "éĢģåĪ°": 9010,
      "çŁŃæļĤ": 9011,
      "æ¶©": 9012,
      "ä¼ļåĳĺ": 9013,
      "åı²è®°": 9014,
      "æĻ¯åĮº": 9015,
      "æľĪçĲĥ": 9016,
      "è¡Ģæ¸ħ": 9017,
      "éĴĪå¯¹æĢ§": 9018,
      "get": 9019,
      "åı¯æĥľ": 9020,
      "çĥĺ": 9021,
      "åı¯èĥ½æĢ§": 9022,
      "éĶĻäºĨ": 9023,
      "éĻįä½İäºĨ": 9024,
      "èĥ½å¤Łåľ¨": 9025,
      "åĪĨæĶ¯": 9026,
      "æĮ£": 9027,
      "ä¹¦éĻ¢": 9028,
      "æīĶ": 9029,
      "éĻ¤éĿŀ": 9030,
      "å·¥ä¼¤": 9031,
      "éĺ»åĬĽ": 9032,
      "æŁĦ": 9033,
      "æ¶µçĽĸ": 9034,
      "ç»Ħå»º": 9035,
      "å¿ĥçĹħ": 9036,
      "æľ¬èº«çļĦ": 9037,
      "çº¬": 9038,
      "ä½İä¸ĭ": 9039,
      "ĠåŃ¦ä¹ł": 9040,
      "çķĮå®ļ": 9041,
      "æľºæŀĦçļĦ": 9042,
      "çŃĽæŁ¥": 9043,
      "éĹ®é¢ĺæĺ¯": 9044,
      "èģĮä½į": 9045,
      "ä¸Ģèµ·æĿ¥": 9046,
      "æ²¦": 9047,
      "åŃķæľŁ": 9048,
      "æµģåħ¥": 9049,
      "çĳľä¼½": 9050,
      "æĿ¡çº¦": 9051,
      "æĽ²å¼ł": 9052,
      "å¯¹èĩªå·±çļĦ": 9053,
      "çİ°è¡Į": 9054,
      "å»ºåĽ½": 9055,
      "èĦĲ": 9056,
      "åıĳå±ķåĪ°": 9057,
      "çĶŁæ´»ä¸ŃçļĦ": 9058,
      "äººæ°ĳçļĦ": 9059,
      "åħ¬åĬ¡åĳĺ": 9060,
      "å¿ħå®ļ": 9061,
      "ç»ıæµİç¤¾ä¼ļ": 9062,
      "çķĮéĿ¢": 9063,
      "åºıåĪĹ": 9064,
      "ä¸¥æł¼çļĦ": 9065,
      "è¿Ľå£«": 9066,
      "åĽŀå¤į": 9067,
      "æľªæĪĲå¹´äºº": 9068,
      "çļĦæĸ¹åĲĳ": 9069,
      "å¤§äºĭ": 9070,
      "ä¸ĵç§ĳ": 9071,
      "åĽ°æĥĳ": 9072,
      "æĢ»å±Ģ": 9073,
      "ä¸ĩéĩĮ": 9074,
      "åİŁæľī": 9075,
      "è§Ħæł¼": 9076,
      "çºªå½ķ": 9077,
      "åľ¨åĵªéĩĮ": 9078,
      "å°ıéº¦": 9079,
      "åıĮéĩį": 9080,
      "è¯Ńè¨ĢçļĦ": 9081,
      "çĶµæľº": 9082,
      "è°ĥçĲĨ": 9083,
      "åºļ": 9084,
      "ä¼łæİĪ": 9085,
      "åħŃå¹´": 9086,
      "æ°¨åŁºéħ¸": 9087,
      "å°Ĩæĺ¯": 9088,
      "çļĦæĶ¿çŃĸ": 9089,
      "87": 9090,
      "ç¢°æĴŀ": 9091,
      "è¿ĻäºĽéĥ½æĺ¯": 9092,
      "å°ļä¹¦": 9093,
      "çļ®è´¨": 9094,
      "ä¸įåİ»": 9095,
      "åĹľ": 9096,
      "å¯¹ç§°": 9097,
      "ä»İæľª": 9098,
      "æ¾¡": 9099,
      "åĽ½åľŁ": 9100,
      "åłµå¡ŀ": 9101,
      "è¯Ńåı¥": 9102,
      "æī¾åĪ°äºĨ": 9103,
      "èŃ¬": 9104,
      "å°±ä¸įèĥ½": 9105,
      "çľ¼åīį": 9106,
      "å¿ĥèĦıçĹħ": 9107,
      "ä¸Ģé¢Ĺ": 9108,
      "ç®¡çĲĨåĴĮ": 9109,
      "å¤ĸè§Ĥ": 9110,
      "åı¯æĢķ": 9111,
      "åľ¨äºĨ": 9112,
      "ä¼¤åı£": 9113,
      "å¯ĴåĨ·": 9114,
      "å¤ªç©º": 9115,
      "èħĳ": 9116,
      "äºĨè§£åĪ°": 9117,
      "èģĶæĥ³": 9118,
      "ä¸ĬåįĪ": 9119,
      "èĦ¾èĥĥ": 9120,
      "ä¸Ģä¸ªäººçļĦ": 9121,
      "åĳ½åĲį": 9122,
      "èĻļåģĩ": 9123,
      "çĳŁ": 9124,
      "ä¸Ģè¯į": 9125,
      "çŃīæĸ¹å¼ı": 9126,
      "è½©": 9127,
      "ç¾ŀ": 9128,
      "æĦŁåĬ¨": 9129,
      "ç¦§": 9130,
      "ä¸įæĦ¿": 9131,
      "çĻ½å¤©": 9132,
      "åı¯ä»¥çľĭåĪ°": 9133,
      "åıĬåħ¶ä»ĸ": 9134,
      "è®¾å¤ĩçļĦ": 9135,
      "ä¸Ģå®ļæĺ¯": 9136,
      "è®¾è®¡å¸Ī": 9137,
      "éķ¿æľŁçļĦ": 9138,
      "å¨ľ": 9139,
      "éĢīæĭ©äºĨ": 9140,
      "è¿ĿèĥĮ": 9141,
      "èİ·åĪ©": 9142,
      "èĪ¹èĪ¶": 9143,
      "å±ıå¹ķ": 9144,
      "çº³ç¨İäºº": 9145,
      "åıªå¥½": 9146,
      "æľīå¤ļå°ĳ": 9147,
      "åŁºåĩĨ": 9148,
      "ä¼´éļı": 9149,
      "åıªéľĢè¦ģ": 9150,
      "åĴĮå¤§": 9151,
      "å¿ĥçĲĨåģ¥åº·": 9152,
      "å¤ľéĹ´": 9153,
      "åĸĿæ°´": 9154,
      "ä¸įå°½": 9155,
      "å¾Ļ": 9156,
      "èħķ": 9157,
      "ç²¾ç¥ŀçļĦ": 9158,
      "ä¹ĭåĲİçļĦ": 9159,
      "æķ¢äºİ": 9160,
      "èĢħåľ¨": 9161,
      "Ġéĩĳ": 9162,
      "æĢľ": 9163,
      "è¿Ļåľ¨": 9164,
      "åıĹä¼¤": 9165,
      "nt": 9166,
      "åı¯çŁ¥": 9167,
      "è¿ĩåī©": 9168,
      "éĿ¢éĥ¨": 9169,
      "ç½ĳé¡µ": 9170,
      "å¾Īå¤§ç¨ĭåº¦ä¸Ĭ": 9171,
      "è¿Ľåº¦": 9172,
      "çļĦæĶ¿æ²»": 9173,
      "çĽ¸å¤Ħ": 9174,
      "åİķ": 9175,
      "å¤´åıĳ": 9176,
      "æĪĳè¯´": 9177,
      "æĭħå¿§": 9178,
      "æĽĿ": 9179,
      "ä¸¤åĽ½": 9180,
      "èĻŀ": 9181,
      "éĻĦå±ŀ": 9182,
      "æĺ¯éĿŀ": 9183,
      "èĥ½ä½¿": 9184,
      "åķ¥": 9185,
      "ä¸ľéĥ¨": 9186,
      "å¾Īå¤ļçļĦ": 9187,
      "æŃĮæĽ²": 9188,
      "å¾Īé«ĺçļĦ": 9189,
      "æľĢå¤ļçļĦ": 9190,
      "å»ĵ": 9191,
      "59": 9192,
      "Ġ...": 9193,
      "ä¸ªæĢ§åĮĸ": 9194,
      "å¸ĪèĮĥå¤§åŃ¦": 9195,
      "å¤§åĨĽ": 9196,
      "éĽĮæ¿Ģç´ł": 9197,
      "å¢ĥå¤ĸ": 9198,
      "æĪĳä»¬å¯¹": 9199,
      "æĺ¥åŃ£": 9200,
      "ä¸İç¤¾ä¼ļ": 9201,
      "é£İéĽ¨": 9202,
      "é²ľæĺİ": 9203,
      "ä¸ĭæ¸¸": 9204,
      "åĽŃåĮº": 9205,
      "ä¸įå¹¸": 9206,
      "ç¬¬ä¸ĥ": 9207,
      "ä¸įåı¯ä»¥": 9208,
      "ç§ĳåŃ¦æĬĢæľ¯": 9209,
      "ave": 9210,
      "çļĦåį±éĻ©": 9211,
      "å¾®éĩı": 9212,
      "ä»¥ä¸ĭåĩłä¸ª": 9213,
      "è¦ģæ¯Ķ": 9214,
      "æ²īæ·Ģ": 9215,
      "çļĦåľ¨": 9216,
      "çĶŁæŃ»": 9217,
      "è´¢ç»ı": 9218,
      "ç¼ĸåĨĻ": 9219,
      "äºĳè®¡ç®Ĺ": 9220,
      "èĢĮæĹł": 9221,
      "äºĮæ°§åĮĸç¢³": 9222,
      "ä¸įè¡Į": 9223,
      "å¾ĴåĪĳ": 9224,
      "åĤ¬åĮĸ": 9225,
      "æ·ĺæ±°": 9226,
      "åıĳå¸ĥçļĦ": 9227,
      "éª¨æĬĺ": 9228,
      "ç¼Ķ": 9229,
      "æ³ķåŃ¦": 9230,
      "æľºåľº": 9231,
      "æīĵåį°": 9232,
      "Ġpr": 9233,
      "çļĦåŁİå¸Ĥ": 9234,
      "çŁ«æŃ£": 9235,
      "æ·±è¿ľ": 9236,
      "è¿½æº¯": 9237,
      "çººç»ĩ": 9238,
      "å§ĵåĲį": 9239,
      "ä¸įåłª": 9240,
      "ä¸ĭè¡Į": 9241,
      "æ´»æ³¼": 9242,
      "æĢģåĬ¿": 9243,
      "(\"": 9244,
      "è¦ģä»İ": 9245,
      "è¢«è¿«": 9246,
      "ä¸ŃåĽ½åı¤ä»£": 9247,
      "wh": 9248,
      "å¼Ī": 9249,
      "æķĻå¸Īåľ¨": 9250,
      "Ġstr": 9251,
      "çļĦè´£ä»»": 9252,
      "ä»ĸå°±": 9253,
      "åĲĪçº¦": 9254,
      "ä¼ģä¸ļå®¶": 9255,
      "è¶£åĳ³": 9256,
      "å®īç½®": 9257,
      "ä¸ĥå¹´": 9258,
      "ep": 9259,
      "ç´łæĿĲ": 9260,
      "åı£è¯Ń": 9261,
      "çĶ¨éĩı": 9262,
      "å¹¶æĹł": 9263,
      "çĽ´çº¿": 9264,
      "ç»Ļåĩº": 9265,
      "ç³»ç»Łä¸Ń": 9266,
      "æ°ĳçĶŁ": 9267,
      "å¼¯æĽ²": 9268,
      "åĽ½åĢº": 9269,
      "é³ŀ": 9270,
      "çļĦç¨ĭåº¦": 9271,
      "ä¸ĢäºĮ": 9272,
      "åıĹçĲĨ": 9273,
      "æĬ«éľ²": 9274,
      "æĺ¯å°Ĩ": 9275,
      "ä¸Ģä½ĵåĮĸ": 9276,
      "èĢĮæľī": 9277,
      "çļĦåĮºåĪ«": 9278,
      "é«ĺçŃīæķĻèĤ²": 9279,
      "çģ¿": 9280,
      "å°ī": 9281,
      "å°ıåŃ¦çĶŁ": 9282,
      "æ®ĭçĸ¾": 9283,
      "éĢĤåº¦": 9284,
      "å¾Īå¼ºçļĦ": 9285,
      "æ±īæľĿ": 9286,
      "èµ°è·¯": 9287,
      "çĽ®åħī": 9288,
      "çłį": 9289,
      "æ°¸ä¹ħ": 9290,
      "æĺ¯æ¯Ķè¾ĥ": 9291,
      "æıī": 9292,
      "å¥´éļ¶": 9293,
      "è¯ĨåŃĹ": 9294,
      "ä¸Ńè¯´": 9295,
      "æ¢Ń": 9296,
      "éķģ": 9297,
      "åģļè¿ĩ": 9298,
      "ng": 9299,
      "çī©èµĦ": 9300,
      "æłĩè®°": 9301,
      "åºĲ": 9302,
      "å½±åĵįåĬĽ": 9303,
      "åģ¥èº«": 9304,
      "èĵĿèī²": 9305,
      "ĠéĤ£": 9306,
      "åıªéľĢ": 9307,
      "èĥĮè¯µ": 9308,
      "çŃĽéĢī": 9309,
      "Ġä¸»": 9310,
      "éĿĴå²Ľ": 9311,
      "çĶŁäº§åĬĽ": 9312,
      "äºĨåĲĹ": 9313,
      "çĹħçĹĩ": 9314,
      "éļĲç§ģ": 9315,
      "åĴĮé«ĺ": 9316,
      "æĸ°åĬłåĿ¡": 9317,
      "æ²¡æľīäºº": 9318,
      "ä½Ĩåħ¶": 9319,
      "çī¹æľīçļĦ": 9320,
      "æŃ»äº¡çİĩ": 9321,
      "å¹¶å¯¹": 9322,
      "åħīçº¿": 9323,
      "åı¯æĮģç»Ńåıĳå±ķ": 9324,
      "ĠæĢ»ä¹ĭ": 9325,
      "å¸½": 9326,
      "è¶ħè¿ĩäºĨ": 9327,
      "åĲįäºº": 9328,
      "ç²¾åĵģ": 9329,
      "ä»»ä½ķä¸Ģä¸ª": 9330,
      "ä¸ºä¸»çļĦ": 9331,
      "åĲİæĿ¥çļĦ": 9332,
      "åĵªæĢķ": 9333,
      "å·§å¦Ļ": 9334,
      "69": 9335,
      "æĦŁè§īåĪ°": 9336,
      "å¤ªæŀģæĭ³": 9337,
      "ä¸ĢæĶ¯": 9338,
      "æ°Ł": 9339,
      "è®¡éĩı": 9340,
      "ç»ĵæĿŁåĲİ": 9341,
      "æīĵç®Ĺ": 9342,
      "åĿ¤": 9343,
      "åĪĽåĬŀ": 9344,
      "è¿ĲåĬ¨çļĦ": 9345,
      "ä»ĭç»įäºĨ": 9346,
      "ä¸ºæĪĳä»¬": 9347,
      "åı¤ä»Ĭ": 9348,
      "æĳ§": 9349,
      "çªģåıĳ": 9350,
      "åĽŀäºĭ": 9351,
      "çİĩé¢Ĩ": 9352,
      "è´¯ç©¿": 9353,
      "ä½İæ¸©": 9354,
      "å»ºç«ĭåľ¨": 9355,
      "Ġpl": 9356,
      "åºĶçĶ¨ç¨ĭåºı": 9357,
      "å·¥ä¸ļåĮĸ": 9358,
      "æĢĸ": 9359,
      "!!": 9360,
      "å¼±çļĦ": 9361,
      "æĪĳä»¬å°Ĩ": 9362,
      "è¿Ļä¸İ": 9363,
      "è®©èĩªå·±": 9364,
      "-\"": 9365,
      "èĤ½": 9366,
      "è£¤": 9367,
      "éħļ": 9368,
      "å¯¹åŃ©åŃĲçļĦ": 9369,
      "79": 9370,
      "èĩªæĦ¿": 9371,
      "çĶµç«Ļ": 9372,
      "åĢ¼çļĦ": 9373,
      "äººæ°ĳç¾¤ä¼Ĺ": 9374,
      "çĥŃå¸¦": 9375,
      "æŃ¦è£ħ": 9376,
      "å®ĮæĪĲçļĦ": 9377,
      "çŁŃçº¿": 9378,
      "æĦ§": 9379,
      "ç«¯åįĪèĬĤ": 9380,
      "å·²è¢«": 9381,
      "æĹ©ä¸Ĭ": 9382,
      "æ²Ļæ¼ł": 9383,
      "ime": 9384,
      "ä¸»ç®¡éĥ¨éĹ¨": 9385,
      "aèĤ¡": 9386,
      "ca": 9387,
      "ä½ĵåĬĽ": 9388,
      "æľīäººè¯´": 9389,
      "è¡¨æī¬": 9390,
      "åįģåĩł": 9391,
      "çļĦç»ıéªĮ": 9392,
      "è¾ĥå·®": 9393,
      "åİĨç»ı": 9394,
      "æĹ¥åĨħ": 9395,
      "æĵħéķ¿": 9396,
      "éĹ½": 9397,
      "çĸıæĿ¾": 9398,
      "èĮĦ": 9399,
      "Ġso": 9400,
      "è·Łéļı": 9401,
      "çļĦæł¹æľ¬": 9402,
      "æĶ¾åĪ°": 9403,
      "åĴĮæĬĢæľ¯": 9404,
      "æ²»çĸĹæĸ¹æ³ķ": 9405,
      ".\"": 9406,
      "å¥ĩæĢª": 9407,
      "å±±åĮº": 9408,
      "çĶ¨å¿ĥ": 9409,
      "è¥¿äºļ": 9410,
      "èļģ": 9411,
      "ä¹ĭç¾İ": 9412,
      "Ġ2016": 9413,
      "æľĢé«ĺäººæ°ĳæ³ķéĻ¢": 9414,
      "å¤§èĩªçĦ¶": 9415,
      "vel": 9416,
      "ä¹ĲåĻ¨": 9417,
      "è¿Ļæĺ¯ä¸Ģç§į": 9418,
      "ç±»åĪ«": 9419,
      "æ³¨æĺİ": 9420,
      "å¯ĩ": 9421,
      "çŃīå¤ļ": 9422,
      "èĸĽ": 9423,
      "åĭĩæ°Ķ": 9424,
      "éĢļä¿Ĺ": 9425,
      "æľŁå¾ĴåĪĳ": 9426,
      "èĤ¢ä½ĵ": 9427,
      "çļĦåľŁåľ°": 9428,
      "è·ĭ": 9429,
      "å¾Īç®Ģåįķ": 9430,
      "ash": 9431,
      "åĲĮæľŁ": 9432,
      "è¡¨æĥħ": 9433,
      "é¾Ļå¤´": 9434,
      "å®¶ä¸Ń": 9435,
      "æ°Ķæģ¯": 9436,
      "Ġsp": 9437,
      "oll": 9438,
      "æĭĨè¿ģ": 9439,
      "çıįè´µ": 9440,
      "æĺ¯æĪĳ": 9441,
      "åĮĸä¸º": 9442,
[...]
